#version: 0.2
t h
th e</w>
i n
r e
a n
t i
e n
o n
e r
o f</w>
t o</w>
a r
o u
o n</w>
o r
r o
an d</w>
i s</w>
t e
i s
i n</w>
a l
a t</w>
i t
in g</w>
o m
s i
e s
a ti
i c
a l</w>
m en
th at</w>
d e
a n</w>
l e
p e
o r</w>
h a
v e</w>
b e
a c
e s</w>
l i
w h
p ro
e d</w>
l y</w>
a t
s t
s u
c on
i l
p o
n o
f or</w>
th e
u s
T h
a s</w>
a s
c i
r i
b e</w>
r a
t a
s e
u n
w e</w>
p or
e n</w>
om m
l d</w>
th is</w>
u r
u ro
E uro
l e</w>
o p
ar e</w>
ati on</w>
re s
i t</w>
n e
t s</w>
v er
no t</w>
ou ld</w>
men t</w>
a d
ha ve</w>
ou n
a g
Euro pe
ati on
ti on</w>
m e
v e
d i
l o
it h</w>
a b
u l
s ,</w>
w ith</w>
t ,</w>
C omm
i m
wh ic
te d</w>
s .</w>
Europe an</w>
f or
c om
whic h</w>
ti on
s h
e x
t er
c e</w>
Th e</w>
w il
g h
w e
b y</w>
e m
d en
y ,</w>
wil l</w>
o l
er e</w>
v i
is si
f e
it y</w>
q u
b u
k e</w>
s o</w>
c h
Comm issi
ha s</w>
t r
m a
ou r</w>
d u
at e</w>
c e
w or
p ar
m o
in g
al l</w>
M r</w>
us t</w>
re si
n i
f i
resi den
po s
men t
a m
ti c
d ,</w>
g e
the r</w>
a p
s t</w>
P residen
p l
ou t</w>
t o
w ould</w>
y .</w>
por t
be r</w>
re n
h e
c oun
al so</w>
c o
por t</w>
g o
re g
s e</w>
sh ould</w>
a i
a y</w>
a te
a r</w>
ro m</w>
U ni
f rom</w>
W e</w>
t u
an t</w>
d s</w>
c h</w>
c es
m ust</w>
d .</w>
s o
li a
P ar
er s</w>
d is
M em
ou r
t ri
be en</w>
bu t</w>
en t</w>
f ic
r u
k e
Commissi on</w>
m an
p er
re c
Par lia
on e</w>
al ly</w>
it s</w>
t ing</w>
' s</w>
d o
ver y</w>
l ic
c a
m or
I t</w>
c l
Presiden t,</w>
p res
m e</w>
S ta
o u</w>
p le
d ing</w>
e c
e f
es e</w>
c an</w>
c omm
us e</w>
f in
de r</w>
Sta te
t ur
g i
ab le</w>
u m
w as</w>
r ou
es .</w>
Mem ber</w>
es ,</w>
t en
ti ve</w>
ci al</w>
mor e</w>
i r</w>
du c
m in
t h</w>
k ing</w>
y ou</w>
C oun
c re
p re
c er
the ir</w>
men ts</w>
te r</w>
Commissi on
ri gh
g en
ation s</w>
s ti
y e
li ke</w>
ar y</w>
d e</w>
re e
v o
d er
p u
d o</w>
pro pos
tion s</w>
a m</w>
su p
s pe
si b
th ere</w>
im port
h o
l y,</w>
po lic
p r
h i
f ac
ve l
Th is</w>
u s</w>
i ti
I n</w>
th ese</w>
t .</w>
the y</w>
g e</w>
e v
o ther</w>
w i
c r
o b
a in
a re
su r
i on
coun tri
j ec
2 0
a y
ou s</w>
m ar
g u
e con
s om
t e</w>
an ce</w>
ation al</w>
le g
l l</w>
s te
be t
wh at</w>
t ra
Parlia ment</w>
s er
m s</w>
no w</w>
b le
in ter
de d</w>
f u
ab out</w>
pe op
e ,</w>
cl u
g h</w>
Uni on</w>
f o
c ur
re port</w>
g r
ne ed</w>
i c</w>
m y</w>
p en
ci l</w>
i es</w>
an s
m on
Coun cil</w>
l a
ca use</w>
econ om
for e</w>
wh o</w>
r on
on ly</w>
wi th
n ational</w>
ne w</w>
i r
o se</w>
con t
c le
po in
is su
wor k</w>
State s</w>
b o
fi r
o d</w>
i f</w>
v es</w>
t ly</w>
e .</w>
qu es
E U</w>
vel op
al l
import ant</w>
tic al</w>
t y</w>
it te
g ra
ve r</w>
be cause</w>
n o</w>
pe c
ver ,</w>
gh t</w>
f fic
com e</w>
ol u
p ri
the re
se l
re d</w>
ar d</w>
po li
si on</w>
p e</w>
re s</w>
s en
fe c
t or
u p</w>
w n</w>
p on
as t</w>
men d
ta ke</w>
tic ul
op er
es s</w>
e ve</w>
is e</w>
an y</w>
de velop
su ch</w>
re e</w>
20 0
par ticul
i on</w>
is h
v en
a f
su b
in te
fe ren
con cer
re ,</w>
sti tu
de b
sur e</w>
for m
in to</w>
we en</w>
ma ke</w>
f un
bet ween</w>
at ing</w>
st an
v ing</w>
th ose</w>
ye ar
st ru
il ity</w>
countri es</w>
peop le</w>
we ver,</w>
pro ble
a u
mar ke
er ,</w>
di rec
ch an
in v
is h</w>
d a
e l
sup port</w>
tr ans
Euro pe</w>
c an
res pon
em p
be li
ap pro
re l
po si
s it
g re
s y
v is
r ic
ag ain
ver n
men t,</w>
som e</w>
ar i
ag ree
pos sib
a ted</w>
wh en</w>
si on
be ing</w>
ati ve</w>
c es</w>
pro duc
un ity</w>
vi e
ar ly</w>
l in
poli tical</w>
a v
k s</w>
re ad
pu b
c tion</w>
Uni on
v ic
ce p
ai d</w>
as e</w>
an s</w>
th ing</w>
ation .</w>
tur e</w>
ta b
ad e</w>
econom ic</w>
w ere</w>
th an</w>
g y</w>
ing .</w>
th in
w ay</w>
am e</w>
c ri
man y</w>
ation ,</w>
ces s
de c
itte e</w>
r s</w>
ti me</w>
a d</w>
ment .</w>
d ge
m p
ra p
al is
pro te
mo st</w>
m ade</w>
polic y</w>
m u
fin an
ci ti
su l
m at
c y</w>
there fore</w>
sy ste
e r</w>
or der</w>
beli eve</w>
m i
ta k
le d</w>
f ul
b as
l on
an d,</w>
um an</w>
me a
al s</w>
again st</w>
z en
g n
pl ac
c or
pres en
l l
t w
th at
c u
I n
o f
ing ,</w>
sit u
tion .</w>
li c</w>
un der
ar ds</w>
C on
dec is
in clu
W h
ef fec
lo w
tion ,</w>
ment al</w>
le c
so cial</w>
ag e</w>
re st
in cre
j ust</w>
fir st</w>
c us
v ed</w>
re at
wor k
gra m
s a
citi zen
Th at</w>
con si
th er
ces s</w>
a st
u e</w>
reg ul
coun tr
pro vi
com p
ad op
cle ar</w>
m il
mea su
cer ta
thin k</w>
x t</w>
d ic
it e</w>
H o
l ar
E U
s ay</w>
ac h</w>
h uman</w>
cont in
t s.</w>
t s,</w>
d ra
vi ron
f ai
b er
righ ts</w>
ex am
go vern
de mo
pub lic</w>
Comm ittee</w>
le s</w>
c our
read y</w>
as s
a ,</w>
ti es</w>
ha d</w>
is l
ev en</w>
A s</w>
pro gram
can not</w>
concer n
wh ere</w>
com pe
an k</w>
ha p
f ra
co oper
a mend
do es</w>
en er
bu dge
sh i
s ame</w>
tw o</w>
th ou
es t</w>
w ant</w>
is ,</w>
v en</w>
demo cr
c ould</w>
th rou
propos al</w>
cur ren
op e</w>
re .</w>
fac t</w>
d ay</w>
emp lo
im ple
ne e
por te
in ci
iti es</w>
st ra
righ t</w>
res pec
re sul
reg ion
es s
qu i
di f
lo w</w>
the m</w>
m .</w>
that ,</w>
in form
ac hi
poin t</w>
finan cial</w>
respon sib
al ready</w>
leg isl
se c
th or
no w
ay s</w>
i g
with in</w>
n um
M rs</w>
in stitu
t le
ho w</w>
en viron
ing s</w>
t al
rap porte
re as
stru c
o wn</w>
dis cus
par t</w>
wh e
sti ll</w>
deb ate</w>
Th ere</w>
A f
ti ve
g rou
tur al</w>
ac cep
en ce</w>
bo th</w>
go od</w>
r an
ac k
comm on</w>
Ho wever,</w>
1 9
mu ch</w>
so ci
g an
res s</w>
develop ment</w>
dif feren
se e</w>
tri bu
ce ,</w>
y our</w>
ne cess
j o
h al
tion al</w>
leg al</w>
tak en</w>
im pro
un der</w>
ser vic
c il
en sure</w>
pr inci
c lo
measu res</w>
ti me
R e
b ers</w>
se cur
inter national</w>
spe ci
c ol
o ver</w>
situ ation</w>
B u
pro ce
he l
d ur
the n</w>
res olu
it y.</w>
ac k</w>
st r
ic al</w>
h is</w>
a .</w>
som e
issu e</w>
st ate
emplo y
ques tion</w>
per i
for m</w>
possib le</w>
gen er
c en
e t
d es
we ll</w>
b i
pu t</w>
qu al
ac t</w>
ob jec
vie w</w>
au thor
s olu
ro w
p a
Coun cil
h ope</w>
ma j
c ar
in ce</w>
men ,</w>
ti al</w>
h ar
t ro
h ere</w>
it y,</w>
we l
wh o
vo te</w>
gen tle
agree ment</w>
e y</w>
num ber</w>
h e</w>
t re
i de
marke t</w>
ad ies</w>
stra te
su m
in iti
inv ol
ac ti
ce .</w>
r is
b le</w>
M ad
hal f</w>
’ s</w>
e ver
p le</w>
with out</w>
y ing</w>
H ou
wh y</w>
ma in
n al</w>
ma y</w>
go ti
Comm unity</w>
fi c</w>
tab l
se ,</w>
gentle men,</w>
lo o
throu gh</w>
s ed</w>
m is
en d</w>
l ast</w>
compe ti
oun d</w>
ne goti
f av
s p
ati c</w>
posi tion</w>
al ,</w>
ate r</w>
ou ra
or gan
e t</w>
me ans</w>
in du
he al
I f</w>
Mad am</w>
op port
a in</w>
f ol
plac e</w>
on s</w>
v al
k now</w>
le .</w>
particul arly</w>
gi ve</w>
at or
ou s
u r</w>
es tabl
l ess</w>
w om
ac h
f ur
me m
cooper ation</w>
gre at</w>
ac tion</w>
as k</w>
hi gh
o c
m ,</w>
in e</w>
re f
T reat
te ch
countr y</w>
w a
n er
fu ture</w>
re qui
incre as
b r
c ed</w>
G rou
le ,</w>
se t</w>
gi ven</w>
ener gy</w>
is t</w>
cr is
sa fe
ti m
citizen s</w>
ffic ul
l an
is ed</w>
te s</w>
jec t</w>
di fficul
es t
ho wever,</w>
c al
u m</w>
ve l</w>
c ul
year s</w>
re por
u p
com ple
a k
l adies</w>
in de
be fore</w>
s aid</w>
con di
Uni ted</w>
e lec
en ti
op in
inform ation</w>
or d
a il
fu l</w>
ex pres
su c
pl ic
whe ther</w>
ac coun
con clu
Presiden t</w>
th ank</w>
r it
me di
con tribu
ou t
Commission er</w>
C h
to o</w>
us ed</w>
c as
par t
we r</w>
ser i
li m
f ree
19 9
e d,</w>
certa in</w>
it .</w>
in ten
prote c
necess ary</w>
ion s</w>
is t
be half</w>
lo c
al ly,</w>
g es</w>
cont ro
c ap
ta in
g ni
port .</w>
ap p
comm un
pro g
pro mo
ef for
o ver
or ity</w>
gu ar
il e</w>
s ince</w>
inte rest
s '</w>
go ing</w>
A n
P ro
i gh
reg ard</w>
lo b
n ing</w>
stan d
k ed</w>
s m
te n</w>
ne xt</w>
p s</w>
si ve</w>
us ti
fra me
f ar</w>
pres ent</w>
thou gh</w>
ge r</w>
ge t</w>
syste m</w>
Commission er,</w>
particul ar</w>
comm it
re presen
w ar
re co
ti c</w>
is .</w>
w ays</w>
per s
b en
se con
ma in</w>
fav our</w>
imple ment
si mp
ag ree</w>
f t</w>
to o
it er
lon g</w>
e d
mil li
fur ther</w>
e d.</w>
prote ction</w>
fol low
st ar
to w
Union .</w>
ro le</w>
proble ms</w>
Wh at</w>
ever y
secur ity</w>
differen t</w>
c ase</w>
at ur
st ri
s ing</w>
proble m</w>
res t</w>
an te
me ly</w>
ric ul
f ish
N o
ter s</w>
are a</w>
le vel
shi p</w>
le vel</w>
de s</w>
t or</w>
ag ricul
ti ci
F or</w>
e l</w>
respec t</w>
ar ch</w>
af ter</w>
res our
vo ted</w>
hel p</w>
chan ge</w>
ful ly</w>
g row
ab ility</w>
is m</w>
te ly</w>
at ten
exam ple
re se
i a</w>
A l
M in
pa ren
pro cess</w>
F in
bet ter</w>
g o</w>
n u
direc tive</w>
b il
pe r</w>
A r
p ur
ch il
ye ar</w>
w ish</w>
en d
th ir
contin ue</w>
nee ds</w>
Bu t</w>
ma king</w>
es sen
tow ards</w>
vie w
pl an
si gn
ter ms</w>
Mem bers</w>
m er
en c
T ur
guar ante
budge t</w>
fe w</w>
tion s.</w>
sh o
wor king</w>
in tro
fic i
on g</w>
k now
ate s</w>
Hou se</w>
a si
ke y</w>
amend ments</w>
decis ion</w>
consi der
sec tor
G o
sion s</w>
fe r</w>
man ag
issu es</w>
g lob
propos als</w>
f ar
sel f</w>
p ul
curren t</w>
adop ted</w>
to day</w>
to ge
ex is
some thing</w>
te xt</w>
t -
th ree</w>
min is
bas is</w>
i li
tra de</w>
frame work</w>
se e
rapporte ur
la w
resolu tion</w>
fi ed</w>
pe ci
fun da
ch o
ation s.</w>
wel come</w>
0 0</w>
inclu ding</w>
ro s
d s,</w>
v ari
ffic i
al .</w>
S t
re ally</w>
du ce</w>
all ,</w>
sh all</w>
me r</w>
u d
qual ity</w>
mat ter</w>
b us
In ter
st ron
di vi
ord in
O n</w>
pe ac
bas ed</w>
cri min
on ,</w>
Parlia ment
di d</w>
certa in
wor ld</w>
Treat y</w>
re duc
lo g
ru les</w>
dur ing</w>
es peci
tr u
e very</w>
provi de</w>
speci fic</w>
indu str
reg ar
w ard</w>
r or
State s.</w>
establ ish
us si
heal th</w>
appro pri
lar ge
se qu
b al
d one</w>
are as</w>
re ly</w>
ce i
democr ac
vi ol
R ussi
ad di
comp an
S o
h u
fin d</w>
b an
u es</w>
Europe .</w>
l ing</w>
especi ally</w>
mi gr
time ,</w>
ren g
tab le</w>
ta king</w>
t un
spe c
qu ite</w>
a im
p h
ac tu
be come</w>
prog ress</w>
in d</w>
de fin
d om
l y.</w>
gre ater</w>
cour se,</w>
st reng
incre ase</w>
wor l
fo re,</w>
i an</w>
st ain
environ mental</w>
d ly,</w>
propos ed</w>
employ ment</w>
g ed</w>
wom en</w>
ous ly</w>
bus in
d ou
Th ey</w>
ti ves</w>
ex tre
opport unity</w>
ad d
com ing</w>
y ou
secon d</w>
col le
ation s,</w>
con f
tion s,</w>
ap pe
c all</w>
feren ce</w>
te d.</w>
im p
do m</w>
ag ain</w>
ati s
ig n</w>
in stru
ex ten
j usti
ben ef
resul t</w>
pen den
seri ous</w>
ra ther</w>
cle arly</w>
ta ble
ven tion</w>
rapporte ur</w>
t ting</w>
re ign</w>
Commission ,</w>
Th ese</w>
State s,</w>
re port.</w>
Commission 's</w>
da y,</w>
n atur
al ways</w>
program me</w>
organ is
re al</w>
er .</w>
do wn</w>
st and</w>
com b
si gni
ic e</w>
un i
Parlia ment,</w>
lin e</w>
sh or
jo in
import ance</w>
ch ar
maj or</w>
pro vis
chil d
signi fic
funda mental</w>
who le</w>
for ward</w>
clo se
ve ment</w>
i z
g g
democr atic</w>
Union ,</w>
ment s.</w>
f l
bu il
an im
Go vern
so li
pr is
la w</w>
on ce</w>
inter nal</w>
de ci
a w
vari ous</w>
op en
s ing
servic es</w>
st ate</w>
example ,</w>
sel ves</w>
thir d</w>
A t</w>
ter ror
al o
il l
repor t,</w>
milli on</w>
f ree</w>
program m
ac cess</w>
re cei
Grou p</w>
are d</w>
as pec
de m
ati ves</w>
de al</w>
e ach</w>
St ate</w>
loo k</w>
on .</w>
fu tu
de f
legisl ation</w>
we e
pe n</w>
en g
it ,</w>
alo gu
be g
th en
ex pec
achi eve</w>
ar ,</w>
gener al</w>
le ad
D i
wh ile</w>
sub ject</w>
inte gr
v an
sm all</w>
er s,</w>
accoun t</w>
grou p</w>
colle ag
it al</w>
i l</w>
condi tions</w>
ment s,</w>
ev en
si de</w>
O n
ap plic
ve lo
spe a
divi du
n on
commun ic
tici p
princi ple</w>
al low</w>
par lia
ac cor
tech no
cour se</w>
F un
difficul t</w>
consi der</w>
de velo
appro ach</w>
pro jec
in dividu
b our
d s.</w>
N o</w>
effec tive</w>
trans paren
en tly</w>
t le</w>
proce du
e p
s ha
ch all
an other</w>
sup por
ha ving</w>
L is
h an
gr at
countri es.</w>
ta in</w>
su stain
com es</w>
it or
Af fai
A mend
grat ul
w an
le ast</w>
m it</w>
Min is
essen tial</w>
d ate</w>
b ility</w>
e duc
j ob
ef fici
af fec
toge ther</w>
po w
Lis b
atten tion</w>
t ary</w>
implement ation</w>
con gratul
i d</w>
regul ation</w>
re ques
po pul
posi tive</w>
EU R</w>
- 0
li ber
li f
t y
tic le</w>
ve ,</w>
the m
sel f
pe d</w>
Europe ,</w>
sing le</w>
b ack</w>
for tun
o ther
cris is</w>
ay ing</w>
men tion
emp ha
g ing</w>
Council ,</w>
enc oura
con sum
co st
er s.</w>
achi ev
sec tor</w>
lar ge</w>
e qu
responsib ility</w>
pro f
hap pen
effor ts</w>
t om
e le
ce ll
h ,</w>
princi ple
f am
b ro
d ly</w>
contin u
ye t</w>
deb ate
m ul
s ai
con stitu
e ment</w>
l ab
di alogu
he r</w>
mon th
I s
ne w
av ail
co he
ex peri
dou b
intro duc
requi re
c ru
rec ent</w>
cen tr
resour ces</w>
p .</w>
glob al</w>
agricul tural</w>
safe ty</w>
li gh
institu tions</w>
countri es,</w>
ate ly</w>
ful l</w>
certain ly</w>
extre mely</w>
L i
20 1
al low
author ities</w>
P ol
rese arch</w>
F ir
polic y.</w>
opin ion</w>
co ordin
e i
d ar
com pro
en tr
te x
br ing</w>
simp ly</w>
j u
b est</w>
ter m</w>
hi gh</w>
ac ces
en large
fic ation</w>
import an
we ll
par ticip
t ar
pers on
cal led</w>
negoti ations</w>
trans port</w>
pr ac
h on
of ten</w>
represen t
cre ate</w>
f le
inv est
l ack</w>
t in
re com
Commission .</w>
d at
concern s</w>
strate gy</w>
ci vi
follow ing</w>
re al
actu ally</w>
ma k
d y</w>
te d,</w>
interest s</w>
i al</w>
for ce</w>
C our
region al</w>
minis tr
r e</w>
do cu
mi ght</w>
develop ing</w>
s or
k ,</w>
free dom</w>
ste p</w>
Ar ticle</w>
ti v
D e
th is.</w>
E C
Presiden cy</w>
G er
r y</w>
empha s
ab o
d on
fo od</w>
e ar
whic h,</w>
con su
L et</w>
con sequ
chall en
hap s</w>
con s
d an
fi ght</w>
ad van
in -
me ,</w>
accep t</w>
Di rec
th ings</w>
o th
R om
Ch in
ai m</w>
curren tly</w>
pre v
impro ve</w>
f er
concern ing</w>
polic ies</w>
c all
lim ate</w>
f y</w>
le t</w>
me e
w rit
es s,</w>
non -
se .</w>
mon ey</w>
govern ment</w>
th is,</w>
pos ed</w>
maj ority</w>
Y ou</w>
se ver
p rec
li ght</w>
Fin ally,</w>
produc ts</w>
re ach
c ha
con tr
pri or
app li
Th e
in no
Parlia ment.</w>
aw are</w>
it self</w>
reas on</w>
T o</w>
conf lic
me .</w>
poin ts</w>
l it
O ffic
ad ministr
tive .</w>
re le
u b
appropri ate</w>
p ,</w>
lin es</w>
t reat
S o</w>
i te
p an
de ter
ob li
ag en
de cl
tur n</w>
om en
l ,</w>
at er
min d</w>
h ol
po wer</w>
an y
the m.</w>
Lisb on</w>
m an</w>
n a
s :</w>
Af ric
st ,</w>
ur e</w>
im migr
h is
contro l</w>
as ed</w>
lon g
n ed</w>
en ou
responsib le</w>
A mer
Amer ic
pos e</w>
is ation</w>
de al
c limate</w>
M E
dur e</w>
decis ion
re form</w>
C o
for ms</w>
fun ds</w>
Parliament 's</w>
vi ous</w>
or ig
exam ple</w>
am oun
reg ards</w>
fish er
ex cell
ari an</w>
o pen</w>
de mon
ab ly</w>
x i
invol ved</w>
imp act</w>
tim es</w>
pre p
sub stan
you ,</w>
ta x
em o
us ,</w>
de ,</w>
industr y</w>
es ter
reco gn
tive ,</w>
c ing</w>
soci e
ag re
e -
at t
R u
decis ions</w>
mat ter
S econ
his tor
Cour t</w>
under stand</w>
star t</w>
acti vi
M ar
p ay
s an
ator y</w>
am ong</w>
mo ve</w>
ver s
inde penden
p residen
An d</w>
du e</w>
y oun
th an
le a
den ce</w>
st o
re li
inte rest</w>
pri v
concer n</w>
concer ne
sion ,</w>
join t</w>
den ti
rel ations</w>
om e</w>
us ing</w>
n ess</w>
b ur
U n
t ation</w>
fe l
region s</w>
amend ment</w>
ris k</w>
M o
re main
writ ing.</w>
part ner
o ds</w>
opport un
pr acti
Govern ment</w>
mee ting</w>
car ri
legisl ative</w>
he ar
su gg
d ay
cr iter
ti ven
grow th</w>
alis ation</w>
b asi
promo te</w>
en ces</w>
se em
e p</w>
fe el</w>
produc tion</w>
tra in
M y</w>
sai d,</w>
initi ative</w>
m ise</w>
signific ant</w>
tech n
al though</w>
individu al</w>
congratul ate</w>
polic y,</w>
competi tion</w>
te mp
vis ion</w>
solu tion</w>
in dic
loc al</w>
W ith</w>
da y.</w>
ass ess
regar ding</w>
Amend ment</w>
dialogu e</w>
soli dar
particul ar,</w>
A u
l is
hu man
peac e</w>
re qu
mem bers</w>
nu clear</w>
avail able</w>
R igh
ter nal</w>
compan ies</w>
agree ments</w>
L e
do ing</w>
dra ft</w>
sustain able</w>
spe cial</w>
ai r
su ffici
as ,</w>
K o
fin al</w>
log ical</w>
ex pen
mil it
dis crimin
P e
comm ittee</w>
sub si
Presiden t-
concern ed</w>
prev ent</w>
ment ary</w>
lon ger</w>
k ind</w>
or m
in- Offic
a de
e ld</w>
objec tive</w>
ces .</w>
pro ces
lit tle</w>
to t
D emo
mak es</w>
B ar
democrac y</w>
rel ation</w>
objec tives</w>
ti l</w>
mo re,</w>
M on
excell ent</w>
an ti
guarante e</w>
de ta
b ar
Demo cr
reas on
t ly,</w>
ab solu
ci r
dra w</w>
E n
ne t
ros s</w>
B el
de man
a vo
le ad</w>
youn g</w>
is ing</w>
me th
sever al</w>
inclu de</w>
so ,</w>
fo reign</w>
rest ric
O ur</w>
me an</w>
s pen
si z
provi ded</w>
far m
President- in-Offic
I tal
stron g</w>
suc cess
ass ist
con ne
p as
inv es
te m
stand ards</w>
per haps</w>
tom or
s es</w>
te .</w>
commit ment</w>
inde ed</w>
manag ement</w>
2 0</w>
ur o</w>
i denti
S ch
heal th
pl ay</w>
civi l</w>
peri od</w>
throu gh
ques tions</w>
inno v
The re
indu stri
i d
re n</w>
st ly,</w>
i ly</w>
s atis
abo ve</w>
e as
work .</w>
programm es</w>
s ci
proce dure</w>
dat a</w>
su f
mention ed</w>
sion .</w>
comm itte
spe e
m issi
ta x</w>
en ,</w>
e ly</w>
ide a</w>
Is ra
con sul
deter min
no thing</w>
b order</w>
al y
ces ,</w>
se en</w>
p ite</w>
con fi
p ack
har mon
at u
work ers</w>
agre ed</w>
fai r</w>
po ver
exis ting</w>
res ol
principle s</w>
ch ,</w>
fi eld</w>
con tain
ac tions</w>
resul ts</w>
le d
tive ly</w>
m s.</w>
re pe
gi c</w>
sho w
re main</w>
of f
0 00</w>
N e
/ 200
mem ber</w>
cor rec
y -
H e
up on</w>
seem s</w>
ar y,</w>
Secon dly,</w>
bal an
state s</w>
ve .</w>
Union 's</w>
p lo
techn ical</w>
ex clu
po ten
di es</w>
On e</w>
lab our</w>
et ary</w>
te ,</w>
benef it</w>
child ren</w>
Affai rs</w>
ple ased</w>
im um</w>
us .</w>
G ree
me chan
G re
ca us
d am
Council .</w>
opin ion
P al
en ter
ob ser
futu re.</w>
pr ic
ac tive</w>
g a
h and,</w>
recom mend
un til</w>
cul tural</w>
N or
qu ic
c um
D ec
tr y</w>
g er
in fl
app ly</w>
techno lo
grou ps</w>
advan ta
W or
Comm un
chan ges</w>
socie ty</w>
ti s
le ar
A g
econom y</w>
( A
expres s</w>
de l
fun ding</w>
de n</w>
s ol
w n
nee ded</w>
sh are</w>
fac t,</w>
S ec
basi c</w>
carri ed</w>
ti es.</w>
p i
oura ble</w>
de .</w>
m it
fle xi
d -
p ay</w>
Re g
milit ary</w>
compro mise</w>
L )</w>
res ,</w>
ref er
m s,</w>
it ing</w>
de si
wor ds</w>
struc tu
ne ver</w>
pro per
rel ating</w>
o ,</w>
fac tor
he ld</w>
rit or
tr ue</w>
time .</w>
vo ting</w>
marke t.</w>
equ al</w>
e uro</w>
b re
em issi
res .</w>
f ail
b or
contribu tion</w>
ate ly,</w>
con text</w>
re duce</w>
pub lic
cri tic
acces sion</w>
spe ak
adop t</w>
streng then
obli g
chan ge
t y,</w>
s our
h en
consu mer</w>
m en</w>
institu tional</w>
lan gu
there fore,</w>
at temp
v in
increas ing</w>
protec t</w>
environ ment</w>
l and</w>
pre ven
val u
B o
ade qu
pri ority</w>
c y,</w>
bil li
as ked</w>
F o
I r
reg re
y 's</w>
at h</w>
s ?</w>
achiev ed</w>
rapporteur ,</w>
view ,</w>
pl an</w>
im medi
enlarge ment</w>
T o
Th ank</w>
d ri
defin i
lif e</w>
t on
an aly
through out</w>
ter ritor
mon itor
orig in
ite m</w>
repor ts</w>
budge tary</w>
A ll</w>
sho w</w>
th us</w>
p ly</w>
ef u
Tur key</w>
me et</w>
Wh en</w>
b ri
s ch
them selves</w>
ag es</w>
k .</w>
spea k</w>
s -
mat ters</w>
e ver</w>
port ing</w>
cost s</w>
Con stitu
an ts</w>
add res
ro w</w>
cre ation</w>
n ation
respon se</w>
provis ions</w>
stan ding</w>
educ ation</w>
ili ties</w>
ke ep</w>
righ ts.</w>
projec ts</w>
govern ments</w>
ou l
' .</w>
that .</w>
em er
clo se</w>
por ts</w>
so on</w>
pur su
of f</w>
righ ts,</w>
alis t</w>
pre par
u t
cru cial</w>
par ties</w>
t y.</w>
year s,</w>
year s.</w>
ar gu
0 %</w>
ur al</w>
are ,</w>
i es.</w>
B e
ref lec
establ ish</w>
cas es</w>
mul ti
aspec ts</w>
Pal est
tak es</w>
sign ed</w>
B al
po st
develo p</w>
ab il
ex ternal</w>
sur ing</w>
as soci
bal ance</w>
applic ation</w>
b an</w>
ten ce</w>
reg ion</w>
sugg es
direc t</w>
contro l
syste ms</w>
ti es,</w>
pre vious</w>
t ent</w>
igh bour
D E
presen ted</w>
A c
table d</w>
communic ation</w>
na mely</w>
accep table</w>
enou gh</w>
M ed
s aying</w>
increas ed</w>
imple men
fac e</w>
ar ound</w>
it arian</w>
st u
activi ties</w>
There fore,</w>
cap ac
i es,</w>
poli tic
busin ess
tiven ess</w>
s ;</w>
ve d.</w>
o ffici
am p
tu al</w>
de red</w>
me an
quic k
job s</w>
en able</w>
ro ad</w>
gen u
qu o
ag rap
efu l</w>
ac ross</w>
Russi a</w>
ai r</w>
ing ly</w>
un fortun
s c
I rel
al u
fo c
C entr
bo dy</w>
accor d
wh ose</w>
ve ly</w>
men tion</w>
sh e</w>
our selves</w>
too ,</w>
fir m
effec t</w>
p ing</w>
tal king</w>
consum ers</w>
rou ght</w>
aim ed</w>
( P
F ren
ir e</w>
T )</w>
st ability</w>
l ess,</w>
F ur
De velop
S we
fish ing</w>
appro ach
C O
soci et
s k
integr ation</w>
ter n
ac y</w>
every thing</w>
absolu tely</w>
President-in-Offic e</w>
to day,</w>
re jec
ther more,</w>
priv ate</w>
a th
sci enti
or e</w>
al s.</w>
year .</w>
ne r</w>
A gen
re la
prep ared</w>
fo o
hi m</w>
Q u
year ,</w>
invest ment</w>
an nu
discus sion</w>
fi ve</w>
o ver,</w>
iti es.</w>
g n</w>
P or
tra di
b ack
deci ded</w>
ex er
too k</w>
expres sed</w>
add ress</w>
ater al</w>
tar ge
su per
s po
te ll</w>
i a,</w>
f our</w>
no t,</w>
on e.</w>
Con vention</w>
ho ld</w>
ru le</w>
he ad
r ati
poin ted</w>
m b
long -
m ess
fel low</w>
g or
foc us</w>
rele v
ca re
gu ide
mo der
y l
as .</w>
ou ght</w>
I ra
li ke
free dom
colleag ues</w>
B ri
busin ess</w>
struc tural</w>
c ros
beg in
C ha
ex pl
ti ma
cas e,</w>
speci fic
level .</w>
work ,</w>
b rought</w>
gi ving</w>
g ent</w>
Direc tive</w>
il legal</w>
bi o
solidar ity</w>
ator s</w>
s es
month s</w>
ran e
f ri
ex cep
can di
iter rane
tis h</w>
vi ously</w>
S er
amoun t</w>
imple ment</w>
achi e
reques t</w>
r ul
assist ance</w>
ans wer</w>
e vi
Palest in
Med iterrane
reach ed</w>
d ers</w>
/ 9
worl d.</w>
de leg
servic e</w>
pre hen
Dec em
tal k</w>
t an
i gn
possib le.</w>
consequ ences</w>
state ment</w>
ei ther</w>
me dic
w ish
sub jec
parlia mentary</w>
ati c
c y.</w>
vic ti
con struc
c are</w>
reas ons</w>
monitor ing</w>
li ve</w>
EU 's</w>
cir cum
v es.</w>
ac ts</w>
prec is
f oun
Ag ree
al most</w>
J un
reco gni
transparen cy</w>
Por tu
de d.</w>
Fren ch</w>
be h
an u
reduc tion</w>
dem and</w>
gr oun
Reg ul
re new
ate .</w>
addi tional</w>
re ach</w>
v ital</w>
comple tely</w>
ne g
out side</w>
re over,</w>
every one</w>
concerne d,</w>
peop le,</w>
poten tial</w>
infl u
al s,</w>
led ge</w>
t ack
encoura ge</w>
st er
a men
en suring</w>
S u
ne ighbour
cre ating</w>
to day.</w>
e qui
the less,</w>
know ,</w>
r us
he re.</w>
par agrap
al ong</w>
wa y,</w>
U N</w>
ra ised</w>
pres sure</w>
opportun ities</w>
than ks</w>
Europe 's</w>
den t</w>
mat er
ate ,</w>
ti g
citizen s.</w>
annu al</w>
ou th</w>
iti es,</w>
p ast</w>
d it
tr an
lo t</w>
countr y,</w>
ho pe
struc ture</w>
val ue</w>
streng then</w>
oth ers</w>
natur al</w>
ex plo
enter pris
con duc
possib ility</w>
ci es</w>
ac e</w>
en cy</w>
cohe sion</w>
relev ant</w>
M a
Ch ris
EU .</w>
ther n</w>
re form
Bu dge
sen se</w>
Fur thermore,</w>
ev alu
fisher ies</w>
requi red</w>
popul ation</w>
ste ad</w>
Fir stly,</w>
mo vement</w>
an n
re view</w>
e f</w>
inclu ded</w>
suppor ted</w>
Bri tish</w>
O f</w>
re fu
Democr at
li fe
ru p
establish ed</w>
f il
com prehen
peop le.</w>
jo b</w>
am b
DE )</w>
an ,</w>
con om
( DE)</w>
train ing</w>
th ,</w>
prac tical</w>
a us
n or</w>
E conom
d le</w>
e li
st at
in fra
val ues</w>
procedu res</w>
Rom an
criter ia</w>
st ress</w>
T O</w>
issu e.</w>
con dem
al le
effec ts</w>
require ments</w>
po ll
no te</w>
opinion ,</w>
prac tic
des pite</w>
effor t</w>
instru ments</w>
stron g
il it
y on
terror is
con cep
o ld</w>
d ru
res er
regul ations</w>
mit ted</w>
co st</w>
are a.</w>
as yl
pro ject</w>
li es</w>
marke t,</w>
viol ence</w>
Centr al</w>
al tern
v al</w>
fir m</w>
m y
U S</w>
ag e.</w>
pro per</w>
f ound</w>
tran si
discus s</w>
human itarian</w>
J usti
E x
avo id</w>
circum stan
cor por
re mo
1 0
ag e,</w>
recei ved</w>
fun c
Par ty</w>
beh ind</w>
oc ca
initi atives</w>
acti v
li ving</w>
o ffic
beg in</w>
ing s,</w>
en .</w>
) .</w>
e th
hon ourable</w>
um -
remain s</w>
of fer</w>
( F
instru ment</w>
O r
tr ying</w>
Pe op
pen s
w ar</w>
mo tion</w>
vo c
accord ance</w>
aim s</w>
1 0</w>
ju dic
cl ari
adop tion</w>
experi ence</w>
fai r
w ater</w>
w ast
car ry</w>
Minis ter</w>
Econom ic</w>
accor ding</w>
Grou p.</w>
ag end
expec t</w>
contribu te</w>
ast er
w at
doub t</w>
A s
th reat
wa y.</w>
comm er
now ,</w>
dis tribu
suffici ent</w>
Inter national</w>
se cu
gr an
per spec
Righ ts</w>
precis ely</w>
( E
mem ber
w ron
pr ice</w>
b l
alis ed</w>
Pol ic
ter ,</w>
represent atives</w>
inves tig
g y,</w>
G ener
P ri
ate st</w>
Ko so
marke ts</w>
A C
on e,</w>
So ci
proces s.</w>
P er
suc cess</w>
thou gh
con vin
k no
v ol
t ask</w>
prog res
comb at</w>
rela ted</w>
fi el
elec tr
farm ers</w>
st ric
provi ding</w>
rec ently</w>
person al</w>
he re,</w>
n am
c amp
si mil
demon str
hu ge</w>
administr ative</w>
u tes</w>
stand ar
li ance</w>
tor s</w>
le gi
h and</w>
ar s</w>
prof es
m omen
sc ope</w>
develo ped</w>
rus sel
he ard</w>
B russel
gi es</w>
pow ers</w>
Wor ld</w>
impro ving</w>
elec tions</w>
provi des</w>
challen ges</w>
s in
consi dered</w>
countr y.</w>
sto p</w>
So cial</w>
go es</w>
implement ing</w>
call s</w>
in ed</w>
pl ay
re ference</w>
al i
ad d</w>
medi um-
discus sed</w>
sh own</w>
Mem ber
ab le.</w>
fam ili
T ra
r ural</w>
conflic t</w>
it self
refu ge
le ft</w>
promo ting</w>
a way</w>
siz ed</w>
re feren
agend a</w>
reli gi
p at
l ist</w>
rel ation
govern mental</w>
fer ing</w>
allow ed</w>
coordin ation</w>
R es
sen si
strate gic</w>
te le
natur e</w>
sib le</w>
consider able</w>
pro cess
re mind</w>
finan cing</w>
3 0</w>
cros s-
on g
oper ation</w>
ou t,</w>
self -
mo de
wast e</w>
ast ,</w>
wor ds,</w>
appro ved</w>
c ame</w>
ther .</w>
n ers</w>
v es
crimin al</w>
organis ations</w>
k ra
deal ing</w>
debate .</w>
ex ac
st om
U kra
H e</w>
subsi di
aster n</w>
child ren
ur gen
be yon
5 -0
exer c
se par
li mi
discus sions</w>
ro o
si x</w>
sa y,</w>
assess ment</w>
prior ities</w>
tot al</w>
dra w
un g
es s.</w>
m as
P o
p ass
c at
m ber</w>
en ts</w>
lo s
direc tly</w>
buil ding</w>
im e</w>
t as
wor ks</w>
cre di
de penden
g y.</w>
expen dit
scienti fic</w>
victi ms</w>
commit ted</w>
grou p
le 's</w>
ex per
min imum</w>
pre ci
st ud
dra f
5 0</w>
1 5</w>
al th</w>
shor t</w>
di ver
S um
F e
recei ve</w>
decl ar
ish ed</w>
propos e</w>
main tain
t ol
com pl
loo king</w>
righ tly</w>
billi on</w>
col lec
dis ast
wan ted</w>
v es,</w>
0 ,</w>
Isra el
Mediterrane an</w>
Develop ment</w>
long- term</w>
whe re
e asi
camp ai
w it
cle ar
h ard</w>
appli ed</w>
level s</w>
quick ly</w>
introduc tion</w>
oc cu
end or
Affai r
treat ment</w>
close d.</w>
the m,</w>
J anu
independen t</w>
fac ilit
ll ing</w>
m om
t op
is es</w>
Re public</w>
r ate</w>
for war
respon d</w>
p aid</w>
industri al</w>
in e
futu re,</w>
ad ap
pack age</w>
sector .</w>
comm unity</w>
capac ity</w>
U S
kno wn</w>
tru c
qual i
pover ty</w>
enti re</w>
ar ch
me et
t :</w>
mom ent</w>
s cal
def ence</w>
Chris ti
in stead</w>
initi ati
al ity</w>
ou t.</w>
con sen
tra ffic
ear li
comple te</w>
ar y.</w>
ra ise</w>
fin ally</w>
h un
Ir ish</w>
beyon d</w>
la be
amb iti
ate d.</w>
confi dence</w>
law .</w>
plac ed</w>
main tain</w>
se tting</w>
mechan is
H uman</w>
ur ity</w>
Au stri
requi res</w>
ar ran
re mar
ve red</w>
) ,</w>
g al</w>
Tur ke
Con ference</w>
b ac
u al</w>
mess age</w>
h ic
am bi
ing s.</w>
implemen ted</w>
di men
z e
re turn</w>
ur gent</w>
centr al</w>
discrimin ation</w>
y ester
se t
practi ce</w>
min or
establish ing</w>
poll u
pro por
t our
over all</w>
st age</w>
st ing</w>
i ght</w>
h om
refer red</w>
inter pre
ag o</w>
ligh ted</w>
de d,</w>
Ho w</w>
En viron
sup porting</w>
medium- sized</w>
adequ ate</w>
Chin a</w>
pl en
hap p
ap pl
th .</w>
th re
go o
ve hic
develop ment.</w>
paragrap h</w>
F r
ic ally</w>
a wa
h er
provis ion</w>
justi ce</w>
j ud
a k</w>
shi p
addi tion,</w>
Un fortun
th er,</w>
1 2</w>
particip ation</w>
un anim
de ath</w>
emplo ye
ti tu
inten ded</w>
e uro
EU ,</w>
worl d
asyl um</w>
gi ves</w>
d a</w>
1 ,</w>
pro b
de li
level ,</w>
call ing</w>
guide lines</w>
5 ,</w>
high ly</w>
even ts</w>
deci de</w>
ch ec
increas ingly</w>
begin ning</w>
3 ,</w>
C y
des cri
N ations</w>
he ad</w>
ste ps</w>
ci li
Decem ber</w>
view s</w>
ex change</w>
anti -
for ced</w>
l at
terror ism</w>
Ger man</w>
syste m.</w>
ab le,</w>
Al though</w>
Th ir
d re
affec ted</w>
pen al
achiev ing</w>
pro duce</w>
c al</w>
des er
A m
ans w
re forms</w>
tic s</w>
reduc ing</w>
bu t,</w>
st ated</w>
analy s
ack now
de pen
ve ments</w>
propos al.</w>
S pan
st oc
ex tent</w>
bo o
2 ,</w>
s al
ty pe</w>
strengthen ing</w>
simil ar</w>
ur ge</w>
conne ction</w>
Fun d</w>
in s
for ces</w>
fam ily</w>
immigr ation</w>
la un
R )</w>
presiden cy</w>
s la
effici ent</w>
T r
com pens
Ru les</w>
success ful</w>
ne t</w>
Li ber
genu ine</w>
h or
emissi ons</w>
en orm
anim al</w>
ca used</w>
show s</w>
close ly</w>
st af
jo in</w>
Sec urity</w>
so .</w>
dra wn</w>
san c
S ep
ve d,</w>
who m</w>
oul d,</w>
S ince</w>
mon etary</w>
sp i
wi de</w>
legi tim
ME P
Fo reign</w>
consen su
w ha
so -
cons is
all .</w>
missi on</w>
high er</w>
re con
represen ts</w>
re fer</w>
stru ction</w>
cre ated</w>
comb ating</w>
specific ally</w>
dan ger
ap preci
situ ation.</w>
benef its</w>
ag o,</w>
H ung
possib le,</w>
e arly</w>
discus sing</w>
for mer</w>
conclu sions</w>
o -
intro duce</w>
re d.</w>
so- called</w>
re in
con cre
b er,</w>
cu stom
ke r</w>
emphas ise</w>
Mo reover,</w>
n ,</w>
suc ce
a vi
Regul ation</w>
S lo
re au
lea ve</w>
(F R)</w>
partner ship</w>
docu ment</w>
1 4
again ,</w>
fo cus
Gener al</w>
k s,</w>
' ,</w>
S tra
S e
limi ted</w>
balan ced</w>
lead ing</w>
he ar</w>
profes sion
a 's</w>
o il</w>
r un
ti ally</w>
debate ,</w>
to day
tomor row
Americ an</w>
ord ers</w>
pric es</w>
N ever
tomor row</w>
sit ting</w>
convin ced</w>
at titu
difficul ties</w>
be coming</w>
tex t,</w>
re port
k s.</w>
go ods</w>
te red</w>
pas sen
ca ted</w>
re present</w>
c o</w>
W i
mode l</w>
well .</w>
stat us</w>
Af ter</w>
requ ire</w>
se x
solu tions</w>
s cho
Justi ce</w>
char ge</w>
G u
E ast</w>
Sep tem
en ce,</w>
il o
tu re,</w>
re alis
g as</w>
candi date</w>
ar ing</w>
recogn ise</w>
ac ci
challen ge</w>
sector ,</w>
cross- border</w>
d ays</w>
ann oun
In de
st ance</w>
fol low</w>
vers ity</w>
some times</w>
caus e,</w>
g est</w>
part ners</w>
dis eas
cu t</w>
Span ish</w>
inter ven
en tly,</w>
par ts</w>
bro ad</w>
w ise</w>
Tr ans
man u
competi tive</w>
po or</w>
Tur k
L u
bor der
we ap
worl d,</w>
inte gra
citizen s,</w>
wan ts</w>
k en</w>
du ty</w>
Ru le</w>
produc ed</w>
competi tiveness</w>
technolo gy</w>
our s</w>
v ation</w>
sup ply</w>
ul ture</w>
r ing</w>
colleag u
Palestin ian</w>
cont ent</w>
enti rely</w>
C har
M ay</w>
ver s</w>
sector s</w>
deman ds</w>
con ven
ob viously</w>
prob ably</w>
vi a</w>
conne c
Pro ce
Jun e</w>
fra u
mon it
in corpor
concre te</w>
ambiti ous</w>
effici ency</w>
ar ity</w>
proble m.</w>
polic e</w>
re -
9 ,</w>
st abil
J o
h im
dis h</w>
t ou
cre d
7 ,</w>
fi gu
B ul
sum mit</w>
pro mis
cri tical</w>
No ve
D o
as king</w>
on e
6 ,</w>
close r</w>
reg is
compro mis
Stra te
es '</w>
manu fac
r ise</w>
Never theless,</w>
business es</w>
establish ment</w>
we ak
effec tively</w>
fe red</w>
O c
objec tiv
law ,</w>
M id
lim it</w>
or ,</w>
an s,</w>
propos al,</w>
buil d</w>
char ac
4 -0
S ome</w>
c y
ar m
comprehen sive</w>
S a
actu al</w>
fac ing</w>
2 5</w>
w on
par ty</w>
8 ,</w>
en t
exac tly</w>
happ y</w>
it ation</w>
ad ded</w>
deal t</w>
Unfortun ately,</w>
accep ted</w>
B er
for ce
agricul ture</w>
regre t</w>
ing ing</w>
arran ge
w in
pl ans</w>
read ing</w>
I s</w>
l aid</w>
ran ge</w>
then ,</w>
j our
con ver
recogni tion</w>
know ledge</w>
st .</w>
F ran
0 .</w>
open ing</w>
matter .</w>
inte l
as su
tol er
L adies</w>
h ou
tion ing</w>
un employment</w>
f all</w>
Pro gram
commer cial</w>
l ing
stud y</w>
f lo
strong ly</w>
any thing</w>
ques tion.</w>
bi g</w>
state ments</w>
rec or
con tra
re member</w>
itte n</w>
ge tting</w>
pu tting</w>
Bul g
il st</w>
consider ation</w>
ester n</w>
K ing
issu e,</w>
o .</w>
e y
coun ter
c oura
i led</w>
con centr
r itten</w>
Gre en</w>
i a.</w>
see k</w>
m atic</w>
attemp t</w>
Agree ment</w>
en ab
com ments</w>
well -
A d
w is
Oc to
sor t</w>
1 1</w>
are as.</w>
pur pose</w>
Bel ar
bu reau
Mid dle</w>
b loc
wel com
st a
aspec t</w>
grow ing</w>
spea king</w>
gen ce</w>
co ver</w>
cap ital</w>
neg ative</w>
f ron
b it
Bel gi
i f
co -
B y</w>
wee k</w>
p pl
be ar</w>
k in
sch em
B an
tr ust</w>
Pri me</w>
l y
S ME
n orm
Janu ary</w>
us eful</w>
commit ments</w>
Irel and</w>
sen d</w>
b ru
bro ad
Ira q
l ess
pro spec
p ic
develop ment,</w>
decision -
Fir st</w>
S outh</w>
gr ound</w>
my self</w>
cri me</w>
thou san
issu es.</w>
addi tion</w>
W TO</w>
un able</w>
pres sion</w>
integra ted</w>
main ly</w>
too .</w>
ist ent</w>
bureau cr
ro ad
employ ment,</w>
dru g
wil l,</w>
sup port.</w>
me rely</w>
p ati
cohe ren
concep t</w>
Inde ed,</w>
be cause,</w>
E ven</w>
agree ment.</w>
Hou se,</w>
r ac
it able</w>
mu tual</w>
mea sure</w>
N G
syste m,</w>
Ital ian</w>
un acceptable</w>
e quality</w>
so ve
de g
enorm ous</w>
sub mitted</w>
conclu sion</w>
den ts</w>
fun d</w>
Amend ments</w>
sensi tive</w>
f ru
le t
or y</w>
n ame</w>
fi gh
Min utes</w>
altern ative</w>
ate gor
appli es</w>
Am ster
Russi an</w>
en jo
ri t</w>
do wn
Qu es
op position</w>
g l
organ ised</w>
influ ence</w>
st atis
quo t
cris is.</w>
eli min
poin t,</w>
relation ship</w>
pres s</w>
for get</w>
table .</w>
thin king</w>
reas on,</w>
ag ed</w>
O b
contain s</w>
deta il
har m
peri o
en ce.</w>
Bar ro
cili ation</w>
vol un
P a
construc tive</w>
renew able</w>
importan t.</w>
ate d,</w>
thre at</w>
elec ted</w>
poin t
dis pu
per fec
Turk ish</w>
b in
wor d</w>
co vered</w>
st s</w>
h y
ris ks</w>
see m</w>
spi rit</w>
. .
st res
p ain
in f
fe el
ad ver
ch ed</w>
an .</w>
pres er
No w</w>
an d
M any</w>
G i
( I
manag ed</w>
4 ,</w>
out come</w>
G e
medi a</w>
develop ments</w>
reg ime</w>
c k
er s'</w>
differen ces</w>
budge t.</w>
b orders</w>
ke ep
cris is,</w>
dam age</w>
ac qu
danger ous</w>
seri ously</w>
legisl ation.</w>
thousan ds</w>
cap it
ses sion</w>
real ity</w>
( S
introduc ed</w>
atic ally</w>
Af gh
He alth</w>
pris on
tot ally</w>
ele ments</w>
ac tion.</w>
Affair s,</w>
ec u
( The</w>
Hou se.</w>
gra ph
br inging</w>
se mb
Fr ance</w>
inform ed</w>
ob st
a z
se d.</w>
are a,</w>
s ’</w>
thou ght</w>
gra te
safe gu
produc t</w>
it y
continu ing</w>
Bal k
substan tial</w>
inclu des</w>
ma x
V er
beli ev
ar ri
direc tive.</w>
In di
work ed</w>
agen da
B ank</w>
deleg ation</w>
p ha
de ad
Christi an</w>
poli tici
bour g</w>
N A
S truc
ber .</w>
Mon etary</w>
C A
appe ar</w>
Ac cor
impro ved</w>
g en</w>
com ment</w>
1 .
exten d</w>
the less</w>
ch ance</w>
proper ly</w>
th u
under standing</w>
vo te.</w>
res ted</w>
Or gan
scal e</w>
per man
ch es</w>
Council 's</w>
societ y.</w>
cul ture</w>
Struc tural</w>
li ves</w>
cap able</w>
di o
organ iz
be d</w>
importan t,</w>
happen ed</w>
ex plan
obst ac
cl as
to ld</w>
5 %</w>
advanta ge</w>
lin ked</w>
h ome</w>
proble ms.</w>
il l</w>
invol ving</w>
p t</w>
employ ment.</w>
an ce,</w>
A gr
resol ve</w>
Agr ic
f a
other .</w>
expendit ure</w>
wron g</w>
1 2
reduc ed</w>
recommend ations</w>
comp any</w>
spee ch</w>
judic ial</w>
(P L)</w>
desi re</w>
fri end
o wn
ch e
re ad</w>
ast .</w>
under min
tru ly</w>
origin al</w>
EU -
referen du
t ations</w>
suppor ts</w>
flexi bility</w>
recom men
defini tion</w>
r ying</w>
ch .</w>
though ,</w>
proces s,</w>
te dly</w>
organis ation</w>
Ger man
institu tions.</w>
con soli
liber alisation</w>
i ,</w>
A ud
now .</w>
200 0</w>
fac ed</w>
protec ting</w>
ra tes</w>
f ying</w>
cooper ation.</w>
e )</w>
correc t</w>
plac e.</w>
eng en</w>
Sch engen</w>
sur ance</w>
an ce.</w>
ben e
servic es,</w>
s ays</w>
in ation</w>
ic ,</w>
Treat y.</w>
pl om
Con ven
gre atest</w>
dis t
H a
immedi ate</w>
econom y.</w>
medic in
are as,</w>
grate ful</w>
ge o
F ra
or der
d r
conclu de</w>
fail ure</w>
No s</w>
agree ment,</w>
Europe ans</w>
P P
consensu s</w>
- up</w>
tem por
promo tion</w>
C an
def en
g ers</w>
oth er,</w>
op posed</w>
Bulg ari
su spen
law s</w>
secur e</w>
them sel
e ing</w>
Afric a</w>
alis ts</w>
Afric an</w>
A si
con ference</w>
adop ting</w>
situ ation,</w>
P ub
program me.</w>
bo dies</w>
offici al</w>
s ou
enterpris es</w>
st ly</w>
innov ation</w>
c ategor
region .</w>
activ ity</w>
on es</w>
d :</w>
por t,</w>
di plom
inten d</w>
histor y</w>
see king</w>
analys is</w>
Wh y</w>
impro vement</w>
high light</w>
environ ment.</w>
Thir dly,</w>
B ur
concerne d.</w>
star ting</w>
si vely</w>
inten tion</w>
author ity</w>
i ther</w>
s ent</w>
pers on</w>
com par
iti me</w>
ev ent</w>
ac ks</w>
d ing,</w>
ser ve</w>
langu age</w>
(A ppl
keep ing</w>
satis factor
s af
servic es.</w>
c k</w>
charac ter
in stan
Isra el</w>
Treat y,</w>
responsib il
Pub lic</w>
E astern</w>
direc tion</w>
i ve</w>
fo re
ol s</w>
de signed</w>
lo y
cor rup
tack le</w>
enou gh
Char ter</w>
comple x</w>
Brussel s</w>
mater i
fe ar</w>
like ly</w>
t led</w>
fin ance</w>
ex ces
pub l
aus e)</w>
t ari
consu mp
g y
de fic
there by</w>
C om
ser ies</w>
direc tive,</w>
eas y</w>
Aud itor
pre ad</w>
def end</w>
shi ps</w>
consul tation</w>
di versity</w>
d y
a ver
S )</w>
re ac
l s</w>
bri ef
or al</w>
lo cated</w>
invol vement</w>
sha red</w>
n or
invol ve</w>
comp ly</w>
Comm itte
Wh ile</w>
V ic
s ound</w>
pre vention</w>
ex ist</w>
b y
addres sed</w>
wish es</w>
institu tions,</w>
alis m</w>
ho we
guarante es</w>
anim als</w>
hap pen</w>
f all
measu res.</w>
cha ir
re d,</w>
bil ateral</w>
. m.</w>
n ess
Swe dish</w>
deg ree</w>
en t.</w>
Sum mit</w>
E ner
af ter
meth ods</w>
mo bil
bur den</w>
reason able</w>
f f
exerc ise</w>
fai led</w>
vis i
fo rest
al loc
consis ten
in ,</w>
wee ks</w>
M e
ra il
an s.</w>
si gn</w>
3 .</w>
suc ces
evi dence</w>
Wi th
terror ist</w>
deta iled</w>
Re gi
S tr
cons istent</w>
lead ers</w>
as ter</w>
M arch</w>
re ject</w>
expl ain</w>
sup ple
all y.</w>
C ol
num er
chil d</w>
lo st</w>
d ation</w>
du ce
Koso v
s per
F or
regul atory</w>
des tro
compl ain
po o
appe al</w>
ordin ary</w>
ide as</w>
ques tion,</w>
beli e
s )</w>
am ong
respec t,</w>
high -
inter vention</w>
form ul
I ,</w>
is m,</w>
se n</w>
ex ecu
D E</w>
pre ce
among st</w>
C ze
resolu tion,</w>
tu ally</w>
poin t.</w>
posi tions</w>
sup p
mon e
z e</w>
p ru
staf f</w>
pos es</w>
On ly</w>
u su
or s</w>
me t</w>
Su ch</w>
MEP s</w>
bu d
U K</w>
attitu de</w>
for th
Ques tion</w>
mechan ism</w>
dom es
ex port</w>
S E</w>
produc ers</w>
posi tion.</w>
Ge or
sum m
emphas is</w>
democrac y,</w>
E C</w>
affec t</w>
Minis ters</w>
A n</w>
shi p.</w>
oc cur
f ish</w>
di gn
lan tic</w>
dis ap
ru n</w>
equi p
measu res,</w>
o w
religi ous</w>
recommend ation</w>
other s,</w>
5 .</w>
ques tion
ist an</w>
follow ed</w>
meth od</w>
initi al</w>
pro sper
ne ither</w>
9 .</w>
compe ten
d ro
colleag ue</w>
decision- making</w>
grou p,</w>
stra ted</w>
ga ve</w>
en d,</w>
comp liance</w>
ele ction</w>
unfortun ately</w>
tr ac
transparen t</w>
mechanis ms</w>
max imum</w>
s mo
b ad</w>
State s'</w>
wel f
p un
occu p
Th ose</w>
Commission ’s</w>
infra structure</w>
Nor th</w>
en ter</w>
S y
wor th</w>
se d,</w>
interest ing</w>
presen ce</w>
v ul
docu ments</w>
you .</w>
f fic</w>
w ,</w>
F rom</w>
Ser bi
im possible</w>
t al</w>
responsib ilities</w>
simp le</w>
gra du
sanc tions</w>
W estern</w>
expec ted</w>
tu re.</w>
sour ces</w>
r oun
cen tur
te s.</w>
propos ing</w>
g ain
contin ues</w>
w ay
lo wer</w>
C ro
monit or</w>
dis charge</w>
M or
program me,</w>
polic ies.</w>
recogn ised</w>
direc tives</w>
change .</w>
fe der
e co
Gree k</w>
domes tic</w>
Pa per</w>
ter .</w>
industr y.</w>
th is
l ater</w>
cred it</w>
es :</w>
entr y</w>
circumstan ces</w>
tal ks</w>
ric h
in cen
bin ding</w>
I ran
in form</w>
there .</w>
play ed</w>
ob tain</w>
ob vious</w>
profession al</w>
pe s</w>
wh ilst</w>
cri m
tra vel</w>
structu res</w>
Mar ke
ke .</w>
ar .</w>
appe ars</w>
simp li
Vic e-
ele ment</w>
d ?</w>
tu re
se ts</w>
Democrat s</w>
ar ms</w>
te ver</w>
bar ri
M al
fu el
Tra de</w>
tra ffic</w>
facilit ate</w>
K y
Le gal</w>
gran ted</w>
V i
budge t,</w>
Soci alist</w>
D es
signific an
mar k</w>
con firm
saf e</w>
Str as
(Appl ause)</w>
com plic
sp ent</w>
pers ons</w>
emer gen
con text,</w>
awa ren
rap id</w>
k il
figh ting</w>
lis ten
T O
exis tence</w>
d am</w>
w as
dic t
oblig ations</w>
g ,</w>
targe ts</w>
al iz
Inter net</w>
hou se</w>
n e</w>
issu es,</w>
J u
man date</w>
net work</w>
open ha
Grou p,</w>
sex ual</w>
ge .</w>
Lu x
C openha
reach ing</w>
evalu ation</w>
Lux em
deb ates</w>
ari ly</w>
a head</w>
ther lan
Afgh an
constitu tional</w>
de lighted</w>
/ 0
vul ner
to bac
gen der</w>
cho ice</w>
spe ed</w>
speak ers</w>
conduc t</w>
in come</w>
immedi ately</w>
perman ent</w>
Ne therlan
mo ving</w>
d ing.</w>
d ai
si des</w>
curren cy</w>
cas e.</w>
today 's</w>
fi f
te s,</w>
allow ing</w>
1 .</w>
Ger many</w>
r ing
ni c</w>
hel ping</w>
repe at</w>
(P T)</w>
th y</w>
democrac y.</w>
dan ger</w>
Sta bility</w>
earli er</w>
un ion</w>
i gh</w>
threat en
T re
tur ing</w>
suf fering</w>
2 7</w>
itself .</w>
b ig
sol ve</w>
mo di
negoti ating</w>
e ase</w>
s ay
rejec ted</w>
im ag
min u
Cze ch</w>
cooper ation,</w>
contra dic
tra ge
environ ment,</w>
proble m,</w>
func tioning</w>
z er
inte rested</w>
do ,</w>
pay ments</w>
tempor ary</w>
te st</w>
Constitu tion</w>
distribu tion</w>
belie ve,</w>
pow er
ou s,</w>
im pose</w>
figu res</w>
a use</w>
G en
Cro ati
no ti
( H
at s</w>
Peop le's</w>
draw ing</w>
practic es</w>
par t,</w>
refuge es</w>
ous ly,</w>
caus es</w>
vo tes</w>
ste ad
rapporteur s</w>
hear t</w>
% .</w>
sour ce</w>
sion s,</w>
O m
numer ous</w>
Kosov o</w>
industr y,</w>
resolu tion.</w>
ne ver
ex emp
employ ed</w>
in t</w>
ob tain
im posed</w>
expres sion</w>
thor ou
th ing,</w>
Om bud
us es</w>
stand ard</w>
la d</w>
ver si
reflec t</w>
natur ally</w>
at or</w>
tradi tional</w>
orig in</w>
en han
comp ati
y ed</w>
qu e</w>
qu anti
Geor gi
happen ing</w>
traffic king</w>
associ ated</w>
appro val</w>
g lad</w>
Septem ber</w>
exam ine</w>
2 .</w>
encoura ging</w>
be ha
any one</w>
Gree ce</w>
A no
st re
resour ces.</w>
con ten
Nove mber</w>
Accor ding</w>
AC P</w>
econom y,</w>
particip ate</w>
wom en,</w>
L ast
Fin an
ho od</w>
tar get</w>
Ano ther</w>
bene fici
( C
uni vers
lin k</w>
administr ation</w>
w ritten</w>
safegu ard</w>
Fra me
ch em
re vis
or ation</w>
19 8
sm an</w>
c in
re ply</w>
mar itime</w>
ou s.</w>
c ou
oblig ation</w>
to co
represent ative</w>
institu tion</w>
R o
Portu gu
ul tima
secur ity,</w>
Amster dam</w>
trans fer</w>
forth coming</w>
han d
toco l</w>
th ing.</w>
ful fil
ex tr
dimen sion</w>
pay ment</w>
t ative</w>
ag ing</w>
as sure</w>
pri mar
ju st
vi r
p us
l ate</w>
rapporteur .</w>
n es
frau d</w>
z en</w>
war m
Roman ia</w>
independen ce</w>
electr on
go t</w>
sion s.</w>
or i
necess ary,</w>
eth nic</w>
tex t.</w>
Presiden cy,</w>
milli ons</w>
wil ling</w>
is ts</w>
endor se</w>
techno logical</w>
s av
f requ
star ted</w>
A ra
resolu tions</w>
gre at
S ub
separ ate</w>
l .</w>
wom en
R O
produc ts.</w>
ing :</w>
contain ed</w>
U N
Pro te
ha ve,</w>
custom s</w>
dependen t</w>
impro vements</w>
le dge
environ ment
don e.</w>
hol ding</w>
To day,</w>
re ign
volun tary</w>
g one</w>
8 .</w>
peac eful</w>
bo ard</w>
ra il</w>
equ ally</w>
sto od</w>
sp ace</w>
civi li
propos es</w>
mp loy
se cre
D ut
so le
leg ally</w>
sign al</w>
F ish
co t
Agric ulture</w>
Ira q</w>
m ur
g .</w>
expl ain
critic ism</w>
es ;</w>
bo di
Last ly,</w>
( CO
l u
demonstr ate</w>
ad voc
dis ab
EC U</w>
again .</w>
Tre ati
Des pite</w>
easi er</w>
I I</w>
care fully</w>
Octo ber</w>
No t</w>
plac e,</w>
Proce du
legisl ation,</w>
posi tion,</w>
c ra
communic ations</w>
lear n</w>
chan ged</w>
re iter
control s</w>
Al ban
Fe bru
protec tion.</w>
member ship</w>
min ority</w>
A ction</w>
declar ation</w>
continu ed</w>
ge ,</w>
u ti
cen t
Is l
6 .</w>
tor y</w>
man age</w>
fai l</w>
al one</w>
C ub
7 .</w>
is he
y ?</w>
weap ons</w>
t on</w>
secur ity.</w>
procedu re.</w>
flexi ble</w>
Gre en
Agen cy</w>
en su
who ,</w>
un doub
tra ding</w>
t ?</w>
Frame work</w>
en force
1 8</w>
(I T)</w>
man d
tre ated</w>
ic s</w>
well ,</w>
campai gn
primar ily</w>
defin ed</w>
re d
collec tive</w>
Portugu ese</w>
meet ings</w>
Slo v
meth o
harmon isation</w>
1 3
tri ed</w>
es ?</w>
appro ve</w>
st or
rese arch
legitim ate</w>
funda ment
plen ary</w>
Gi ven</w>
As semb
A L
en t,</w>
shor t
mu st,</w>
pa in</w>
in .</w>
1 3</w>
moder n</w>
con stan
Finan cial</w>
20 20</w>
af for
ac ting</w>
tic ally</w>
M ac
- European</w>
citizen s'</w>
demon strated</w>
n ing,</w>
change ,</w>
elec tor
i ed</w>
dis tor
vic e</w>
stric t</w>
ac t.</w>
vo ice</w>
NG O
re tur
e u
e arch</w>
Res earch</w>
ph en
region s.</w>
peop les</w>
ab sen
D an
proce ed
Polic y</w>
groun ds</w>
Rom a</w>
re v
real ise</w>
lim its</w>
un less</w>
pos ing</w>
compe tence</w>
t ren
invol ves</w>
enti tled</w>
ai d.</w>
plan ning</w>
net works</w>
to ,</w>
gen e
em bar
govern ance</w>
amoun ts</w>
firm ly</w>
im plic
do w</w>
as h
Member s,</w>
lo se</w>
amend ments,</w>
p il
f is
con struction</w>
do .</w>
credi bility</w>
proble ms,</w>
ex pan
b it</w>
Y et</w>
ad v
societ y,</w>
au tom
shi p,</w>
Fun da
chan ging</w>
ty pes</w>
sub sequ
far mer
Ko re
He ad
H igh</w>
B rit
pro ve</w>
s on</w>
regre t
introduc ing</w>
i k
dy nam
sove reign
y s</w>
inclu sion</w>
Ne w</w>
allow s</w>
beha vi
Chin ese</w>
om e
in ing</w>
L a
agen cies</w>
si m
techno log
inf ring
Ukra ine</w>
T i
preven ting</w>
moder n
Fish er
fac tor</w>
comp ared</w>
J ap
we ,</w>
super vis
polic ies,</w>
n ation</w>
up .</w>
go al</w>
Bal tic</w>
compens ation</w>
cho ic
l in</w>
cas es,</w>
ex tra
ser v
yester day</w>
situ ations</w>
ap paren
H er
electron ic</w>
Environ ment,</w>
D o</w>
phen omen
parlia ments</w>
pri m
sugg est</w>
al e</w>
199 9</w>
manag e
Dut ch</w>
wha tever</w>
require ment</w>
region s,</w>
al located</w>
high est</w>
prepar ing</w>
c ar</w>
part -
los s</w>
Inter governmental</w>
mas s</w>
prep are</w>
ill u
C ar
reco very</w>
el se</w>
decis ive</w>
In du
ta ge</w>
sch e
conclu sion,</w>
Per haps</w>
Funda mental</w>
Con su
undoub tedly</w>
com men
region ,</w>
ai d,</w>
pen sion</w>
appl ying</w>
n s</w>
ati vely</w>
gener ally</w>
clo sed</w>
att acks</w>
lo gy</w>
under tak
other wise</w>
mi d
fel t</w>
d ings</w>
vis a</w>
( N
pas s</w>
con firm</w>
c ent</w>
Y u
D ur
negoti ations.</w>
consider ing</w>
p hi
high ligh
ag o.</w>
to p</w>
restric tions</w>
dis aster</w>
rel ates</w>
off ers</w>
al so,</w>
1 4</w>
educ ation,</w>
Ju ly</w>
multi l
campai gn</w>
Ukra in
li ed</w>
substan ces</w>
lead er
principle ,</w>
constan tly</w>
respec tive</w>
forwar d.</w>
mar g
is m.</w>
direc tion.</w>
un accep
econom ies</w>
fi l</w>
provis ion
up ,</w>
condi tion</w>
arrange ments</w>
some what</w>
E mploy
.. .</w>
suppor t,</w>
on al</w>
Sec re
co ver
Agen da</w>
d i</w>
fin ding</w>
matter ,</w>
quali fied</w>
fis cal</w>
Program me</w>
pro hi
r ound</w>
Koso vo
4 .</w>
toge ther.</w>
ar ies</w>
contr ary,</w>
mo bility</w>
pass ed</w>
King dom</w>
lar gest</w>
set tle
job s.</w>
Israel i</w>
wom en.</w>
fin e</w>
freedom ,</w>
im pression</w>
se a</w>
tobac co</w>
certain ty</w>
L an
genu in
coura ge</w>
o g
ish ing</w>
subsi dies</w>
um ,</w>
let ter</w>
electr ic
approach .</w>
Consu mer</w>
differen ce</w>
spo ke</w>
dom in
atur e</w>
momen t,</w>
att ack</w>
go sla
de ep
Yu gosla
wi de
necess ary.</w>
propos als.</w>
ab ol
large ly</w>
emergen cy</w>
siz e</w>
effec tiveness</w>
oper ate</w>
mon o
histor ic</w>
ful fil</w>
famili es</w>
defin e</w>
inform ation,</w>
awaren ess</w>
exces sive</w>
appreci ate</w>
rul es.</w>
pursu e</w>
our .</w>
in spec
treat y</w>
labe lling</w>
drug s</w>
x im
inten ds</w>
ves sel
sti mul
re vision</w>
g ain</w>
Righ ts,</w>
resour ces,</w>
en ds</w>
Ital y</w>
spen ding</w>
ur s
o l</w>
jour n
un ion
tour ism</w>
ner ship</w>
v an</w>
cooper ate</w>
2 )</w>
resol ved</w>
phi c</w>
ha s,</w>
vis it</w>
ty -
offic e</w>
Ener gy</w>
fir ms</w>
en de
he av
sur ve
oper ating</w>
Commission '</w>
ro -
P ak
Constitu tional</w>
re struc
comp ul
dis pos
committe es</w>
maintain ing</w>
E -
clari fy</w>
y si
o s</w>
represen ted</w>
determin ation</w>
Trans port</w>
bas is.</w>
1 5
sa w</w>
over come</w>
in s</w>
jud g
el se
ra dic
i ans</w>
be ,</w>
x ed</w>
geo graph
mo del
life .</w>
car b
can d
vulner able</w>
technolo gies</w>
br ings</w>
b ab
es tima
welf are</w>
oper ational</w>
ass ess</w>
fir stly</w>
itself ,</w>
e ded</w>
sub mit</w>
determin ed</w>
amen ding</w>
s co
pre -
gu i
de ath
believ es</w>
territor ial</w>
strate gy.</w>
contribu tions</w>
migr ation</w>
factor s</w>
cont act</w>
fir stly,</w>
ende av
ultima tely</w>
amend ments.</w>
pro ved</w>
realis tic</w>
(N L)</w>
appropri ations</w>
Be cause</w>
on s.</w>
tax ation</w>
urgen tly</w>
S pain</w>
territor y</w>
st able</w>
p ir
flo or</w>
b at
se ven</w>
proce ed</w>
pe ti
view .</w>
produc ts,</w>
regul ation.</w>
S E
no ted</w>
instan ce,</w>
form ation</w>
compul sor
Americ a</w>
manufac ture
op ho
v ac
unfortun ately,</w>
person ally</w>
Head s</w>
exten sion</w>
ati n</w>
Con sequ
cle ar,</w>
sur pr
Commission er.</w>
conclu ded</w>
reason s,</w>
n .</w>
G D
gi ble</w>
pl aying</w>
4 0</w>
regul ation,</w>
perspec tive</w>
protec tion,</w>
produc ing</w>
opin ions</w>
perfec tly</w>
ke pt</w>
dis tin
crim es</w>
V A
Re presen
see ing</w>
L atin</w>
sur vi
s ni
vehic les</w>
spo ken</w>
vi g
t ing,</w>
m un
who le.</w>
justi fied</w>
inde ed,</w>
plan ned</w>
d ;</w>
sp ir
consump tion</w>
politici ans</w>
en ced</w>
coordin ated</w>
agenda .</w>
justi fi
fu el</w>
f our
Isl am
plac es</w>
C or
ac ce
syste m
n atu
genuin ely</w>
Cha mber</w>
resul t,</w>
programm es.</w>
k o
en vis
viol ations</w>
re min
Bulgari a</w>
s cru
ma de.</w>
medic al</w>
h ours</w>
is tic</w>
to .</w>
ch ing</w>
pa per</w>
norm al</w>
pri l</w>
man ner</w>
f ,</w>
deb t</w>
A pril</w>
1 6
under stand
exten ded</w>
Con tro
author ities.</w>
announ ced</w>
ad vis
A t
th ings,</w>
is ol
s si
deb ating</w>
op tion</w>
Sa fe
M c
’ .</w>
peop le's</w>
sy mp
Parliament ’s</w>
wa iting</w>
tra vel
produc tive</w>
part ner</w>
I m
Copenha gen</w>
trans port,</w>
mention ed,</w>
poin ts.</w>
(A 5-0
simp lif
health ,</w>
propor tion
resul ting</w>
inform ation.</w>
de liber
Th urs
Strate gy</w>
tas ks</w>
no t.</w>
te en</w>
suffici ently</w>
ke ,</w>
invest ments</w>
reques ted</w>
of fered</w>
marke ts.</w>
author ities,</w>
st op
Bo sni
SME s</w>
b ir
condem n</w>
aver age</w>
tax pay
t s
prim ary</w>
por ted</w>
1 00</w>
qu ar
M ore</w>
E M
k ers</w>
never theless</w>
know s</w>
Vice- President</w>
ac t,</w>
CO 2</w>
re ment</w>
ac cus
won der</w>
Se a</w>
regul ar</w>
ins ist</w>
de e
exper ts</w>
sha dow</w>
innov ative</w>
pru s</w>
descri bed</w>
Cy prus</w>
commun ities</w>
sen sible</w>
obstac les</w>
Hung arian</w>
ac tively</w>
P act</w>
200 6</w>
ne l</w>
lead s</w>
vo ic
stron ger</w>
chall eng
pollu tion</w>
g res
be .</w>
presen t,</w>
p ath</w>
t ly.</w>
Inter nal</w>
ri es</w>
ener gy,</w>
% ,</w>
univers al</w>
in surance</w>
cons ci
L A
a -
Employ ment</w>
neighbour ing</w>
T a
sh ould,</w>
dri ving</w>
State .</w>
ter m,</w>
re ven
guarante ed</w>
consi ders</w>
Minis ter,</w>
on going</w>
procedu re,</w>
cl aim</w>
Nor thern</w>
Be fore</w>
re ci
del ay</w>
l ap
associ ation</w>
Dur ing</w>
condi tions.</w>
an a</w>
l atest</w>
absolu te</w>
confirm ed</w>
1 7
Ky o
1 )</w>
rati fication</w>
uni ted</w>
stru gg
secon dly,</w>
Fun ds</w>
com e.</w>
acknow ledge</w>
er 's</w>
candi d
On ce</w>
wa it</w>
ra is
ple ase</w>
mon th</w>
gr ant</w>
200 7</w>
v ations</w>
safe guar
er ing</w>
be comes</w>
ter ms,</w>
constitu te</w>
b ra
v il
health .</w>
form al</w>
M an
objectiv es.</w>
absen ce</w>
1 6</w>
colleagu e,</w>
mater ial</w>
con vic
maj or
le d.</w>
ex c
standar ds.</w>
c ro
Fo od</w>
conflic ts</w>
comm issi
0 0
l and,</w>
n ations</w>
ac compan
inv est</w>
go als</w>
ton om
af fair
syste ms.</w>
n ing.</w>
intel li
gre en
stan ds</w>
prec ise</w>
de sign
han ds</w>
t ing.</w>
righ t.</w>
le ast,</w>
L ast</w>
sai d.</w>
Ex ternal</w>
1 7</w>
col lab
care ful</w>
s ad
Ir an</w>
low ing</w>
princi pl
With out</w>
than king</w>
Consequ ently,</w>
transi tional</w>
roo m</w>
other s.</w>
B us
terroris m.</w>
minis ters</w>
Regi onal</w>
z one</w>
S pain
significan tly</w>
refer ring</w>
Ar e</w>
satisfactor y</w>
dis ease</w>
dai ly</w>
offici als</w>
Presiden t.</w>
Auditor s</w>
immigr ants</w>
publ ished</w>
f as
o d
P l
ur ban</w>
ac tion,</w>
Euro po
wil ling
some one</w>
group s,</w>
friend ly</w>
enjo y</w>
Th en</w>
under stood</w>
pi e
m oun
Fran ce,</w>
si l
children ,</w>
employe es</w>
too l</w>
co ast
hope ,</w>
h ous
suf fer</w>
ter ri
dict ator
re p
essen ti
C he
er ation</w>
Mor oc
competi tion.</w>
Wh ite</w>
subsidi arity</w>
example .</w>
ar ch,</w>
cho ose</w>
vo te
fai rs</w>
w ent</w>
Russi a,</w>
valu able</w>
st ant</w>
lan d
dou ble</w>
decl ared</w>
concentr ate</w>
after no
le r</w>
j e
b ase</w>
assu me</w>
af fairs</w>
c op
lat ter</w>
cor e</w>
im ports</w>
ban ks</w>
par tly</w>
et c
e ch
infra structu
conf ron
affec ts</w>
conver gence</w>
mor al</w>
committe e,</w>
coheren t</w>
S ou
T un
oper ations</w>
ar d
Luxem bourg</w>
ric h</w>
vo te,</w>
remar ks</w>
propos als,</w>
Ha ving</w>
rese arch,</w>
intel lec
f al
enlarge ment.</w>
l eng
me ant</w>
solu tion.</w>
ha bit
strate gy,</w>
j ur
L am
under taken</w>
competi tiven
car rying</w>
Polic y,</w>
dis advanta
da ted</w>
NA TO</w>
un fair</w>
recor d</w>
compulsor y</w>
transi tion</w>
re move</w>
example s</w>
ra ising</w>
obli ged</w>
dre ds</w>
tex ti
le ction</w>
know ledge
exis ts</w>
responsibil ity.</w>
don e,</w>
her it
Y e
re ver
centr e</w>
sk ill
guarante eing</w>
table ,</w>
multil ateral</w>
identi fy</w>
fic ations</w>
attemp ts</w>
wi der</w>
att ach
y ;</w>
regar d,</w>
cal cul
approach ,</w>
bre ak</w>
mor ning</w>
sp ite</w>
argu ments</w>
PP E-
co decision</w>
ex plic
at ,</w>
protec ted</w>
farm ing</w>
Austri an</w>
possib ly</w>
explo itation</w>
detail s</w>
ph ysi
month s.</w>
an d.</w>
a po
Par t
con ciliation</w>
200 4</w>
Comm on</w>
terroris m,</w>
pil lar
Union ’s</w>
5 00</w>
hon our</w>
on s,</w>
fav ourable</w>
practi ce.</w>
1 8
children .</w>
su g
enough .</w>
D en
l es,</w>
defini tely</w>
compe tent</w>
Euro -
mar ked</w>
referendu m</w>
carb on</w>
e ?</w>
Bar ce
themsel ves.</w>
progres s.</w>
op ti
Swe den</w>
Barce lon
ne ar</w>
individu als</w>
P ap
ha z
thu an
Li thuan
ye r</w>
im pe
gra phic</w>
see ks</w>
politic ally</w>
compati ble</w>
statis tics</w>
freedom s</w>
condi tions,</w>
for ce.</w>
deta il</w>
C an</w>
rul es,</w>
olu tion</w>
willing ness</w>
sou thern</w>
e astern</w>
chan g
on e-
min im
reg i
public ,</w>
pu rely</w>
lis ten</w>
cl ar
( Christian</w>
l es.</w>
interest s.</w>
appro xim
State ,</w>
qual ity,</w>
bas is,</w>
Dan ish</w>
clear .</w>
schem e</w>
in ev
Belgi an</w>
de plo
arm ed</w>
Marke t</w>
decision .</w>
bur den
vel y.</w>
fi g
acknow led
C i
grow th,</w>
ef ul
S an
proper ty</w>
respon ding</w>
glob alisation</w>
Fe der
tomorrow .</w>
regar ded</w>
great ly</w>
ab stain
M us
our ,</w>
mo d
for man
ac i
liber al</w>
cl aus
sum ed</w>
en tre
au tonom
L ef
righ t,</w>
govern ing</w>
fun ds.</w>
So ,</w>
necess arily</w>
programm es,</w>
month s,</w>
strate s</w>
at lantic</w>
tra gic</w>
t a</w>
electric ity</w>
propor tion</w>
oper ators</w>
Presiden cy.</w>
M ol
tim ate</w>
sole ly</w>
ar ti
Can ad
ter s,</w>
Au thor
mas sive</w>
high lighted</w>
hel ped</w>
addres sing</w>
accoun ts</w>
G row
rel atively</w>
pro po
barri ers</w>
ili ties.</w>
are .</w>
run ning</w>
minor ities</w>
invol ved.</w>
ide o
Do es</w>
pur cha
prepar ation</w>
ex ce
c hap
de p
work ers,</w>
W el
Sub jec
wee k
suf fered</w>
N ational</w>
man ,</w>
exten ding</w>
C am
en ta
al co
inter institutional</w>
stu dies</w>
shor t-
deli ver</w>
To day</w>
Subjec t:</w>
diplom atic</w>
rele ase</w>
consum ers.</w>
citi zen</w>
b om
VA T</w>
there ,</w>
satis fied</w>
re ve
pro secu
p .m.</w>
determin e</w>
a part</w>
agree ments.</w>
n er,</w>
201 0</w>
s cand
k ing,</w>
con tain</w>
brief ly</w>
w ould,</w>
spe cul
p rou
diver sit
PPE- DE</w>
wis e,</w>
trans port.</w>
su rely</w>
dru g</w>
200 9</w>
th es
peop le
lin ed</w>
adver ti
Che ch
poo rest</w>
net work
con stant</w>
ver y
v it
E gy
where by</w>
au d
m a</w>
- based</w>
m al
M (
su itable</w>
gener ation</w>
(E S)</w>
er ror
buil t</w>
ver .</w>
s cen
per forman
de als</w>
tab ly</w>
s pread</w>
pre ne
fig ure</w>
C F
th -
ab use</w>
ma de,</w>
health y</w>
pri or</w>
il ,</w>
Bo th</w>
R E
H ere</w>
Commission ers</w>
negoti ations,</w>
hun dreds</w>
avo i
enab ling</w>
ner .</w>
extr a</w>
desi ra
safe ty.</w>
ste p
ed on
al ise</w>
respec t.</w>
st atu
f f</w>
Pol ish</w>
satis fac
H ome</w>
u c
S cot
Belar us</w>
foun d
cl ause</w>
argu ment</w>
S i
mil k</w>
ass ist</w>
m ac
job s,</w>
ci pl
ous ly.</w>
CA P</w>
lin ks</w>
fun ction</w>
econom ic,</w>
Mac edon
public .</w>
with .</w>
me at</w>
ble .</w>
Kyo to</w>
gran ting</w>
t 's</w>
cour t</w>
issu ed</w>
Portu g
uni form</w>
enlarge ment,</w>
Con feren
ei ght</w>
Grow th</w>
rap i
sub stance</w>
cho sen</w>
ag ue</w>
effici enc
committe e.</w>
Budge tary</w>
tra de,</w>
pha se</w>
Al liance</w>
i .
m ic
lin es.</w>
at tr
B ra
dis cipl
E very
C iti
open ed</w>
exten sive</w>
deser ves</w>
Slov ak
bri ef</w>
Slo ven
um .</w>
laun ched</w>
it s.</w>
bo d
remain ing</w>
or .</w>
do c
p ill
reques ts</w>
conduc ted</w>
N atur
focus ed</w>
expec tations</w>
W ill</w>
ter m.</w>
howe ver</w>
happen s</w>
ener gy.</w>
de v
con feren
Co operation</w>
mo reover,</w>
essen tially</w>
du mp
T E
200 5</w>
subjec t.</w>
spen d</w>
langu ages</w>
200 8</w>
p aying</w>
tion ary</w>
restruc turing</w>
l ay</w>
heav y</w>
M u
strate gies</w>
com pon
u gh
Ch an
toge ther,</w>
ar is
V )</w>
modi fied</w>
en tered</w>
ad just
U E
2 4</w>
our sel
geograph ical</w>
depen d</w>
Fir st,</w>
min d,</w>
adv ance</w>
Citi zen
thin k,</w>
en h
Wh ere</w>
Febru ary</w>
affec ting</w>
entre prene
S ol
sup posed</w>
rapporteur 's</w>
d ol
deb ated</w>
tru th</w>
leader ship</w>
Z im
Un der</w>
enh ance</w>
enforce ment</w>
un il
adap t</w>
super vision</w>
ple a
Portu gal</w>
M O
sugges ted</w>
laun ch</w>
iz e</w>
Fisher ies</w>
qu ir
big gest</w>
agen cy</w>
whe re,</w>
negoti ation</w>
de tri
- scale</w>
pre dic
on -
tax es</w>
fisher men</w>
stead ,</w>
W omen
Parliament ary</w>
vi l</w>
for ,</w>
confi den
co de</w>
R ural</w>
J ust</w>
re place</w>
German y,</w>
fra g
pie ce</w>
intellec tual</w>
pri vi
l ying</w>
group s.</w>
compan ies,</w>
fer red</w>
Russi a.</w>
with ,</w>
contr ary</w>
succe ed</w>
reflec ted</w>
pl ant</w>
per su
matter s.</w>
th res
e :</w>
e ty</w>
difficul ty</w>
gre en</w>
can ce
where as</w>
answ ers</w>
ci vil
ton n
behavi our</w>
constitu tes</w>
In stitu
S ud
tra de.</w>
su m</w>
fiel d.</w>
d less</w>
c ity</w>
H el
ic i
deman ding</w>
ref ers</w>
harm ful</w>
countr y's</w>
en ni
af ra
F ol
num bers</w>
pro of</w>
experi enced</w>
i. e.</w>
politic s</w>
c ally</w>
Turke y,</w>
point ment</w>
extre me</w>
ast rich
Ma astrich
wee k,</w>
protec tion
hear ing</w>
asi de</w>
syste ms,</w>
mu ch,</w>
avi ation</w>
amen ded</w>
scru tin
s ligh
new s</w>
for ce,</w>
S ing
y :</w>
eng age</w>
an ces</w>
passen ger</w>
s ac
mone y.</w>
vic tim
sen ten
depen ds</w>
t ;</w>
pro mp
marke ts,</w>
competi tion,</w>
Pol and</w>
ra di
b ly</w>
Democrat s)</w>
signific ance</w>
s tic
feel ing</w>
green house</w>
der ,</w>
corrup tion</w>
wor thy</w>
clas si
En gl
i m</w>
Sum m
op pose</w>
women 's</w>
se lec
Assemb ly</w>
agree ments,</w>
Jo int</w>
contribu ted</w>
passen gers</w>
indic ated</w>
ga p</w>
dign ity</w>
B ro
proceed ings</w>
0 .
ut most</w>
du ties</w>
I ts</w>
resul ts.</w>
quot as</w>
succes s.</w>
ati ve,</w>
President-in-Offic e,</w>
N or</w>
As soci
rest ore</w>
histor ical</w>
a der</w>
T our
viol ation</w>
No w,</w>
p es
di g
1 9</w>
EU ’s</w>
subsidi ar
F er
an ticip
te ach
US A</w>
T w
ver sion</w>
supple mentary</w>
spea ker</w>
diseas es</w>
( RO
lin es,</w>
pre viously</w>
p ast,</w>
interpre tation</w>
hope s</w>
I D
Barcelon a</w>
(RO )</w>
tur ned</w>
short com
ro r</w>
nee ded.</w>
ca u
Tun is
G lob
ques tions.</w>
fiel ds</w>
cer ti
tele vision</w>
j un
Ser vic
2 1</w>
( Parliament</w>
elector al</w>
F our
scho ol</w>
ab out.</w>
process es</w>
possib ilities</w>
identi fied</w>
G az
wor st</w>
ins is
presen ting</w>
tre ati
power ful</w>
post pon
dis appe
(E L)</w>
wit ness
in es</w>
NGO s</w>
de cre
all ing</w>
W TO
l led</w>
fun ds,</w>
Chin a,</w>
safe ty,</w>
( B
re a
peac e,</w>
Europe ’s</w>
- 201
penal ty</w>
border s.</w>
inten sive</w>
sur roun
s pr
of ,</w>
disast ers</w>
easi ly</w>
S C
Indi a</w>
recon struction</w>
mul tin
der og
wel comes</w>
il ing</w>
deep ly</w>
be aring</w>
- B
resolu tion
sh oc
l er
increas es</w>
Indu str
wh i
Govern ment,</w>
sa ve</w>
lea ving</w>
Zim bab
sti pul
Prote ction</w>
loo ked</w>
investig ation</w>
ig no
success fully</w>
p ast.</w>
sp here</w>
activi ties.</w>
reli able</w>
fair ly</w>
decision ,</w>
Ci vil</w>
expendit u
chec k</w>
wor se</w>
sovereign ty</w>
tomorrow ,</w>
to -
repe ate
world 's</w>
applic ant</w>
alis ing</w>
mo ve
regul ated</w>
tic les</w>
hy po
Stras bourg</w>
life ,</w>
Re port</w>
per cen
cre ates</w>
v ast</w>
en d.</w>
consequ en
d ge</w>
work ers.</w>
vessel s</w>
reiter ate</w>
qual ity.</w>
per pe
contr ac
bre a
applic able</w>
supp li
stoc ks</w>
b ing</w>
E st
rec all</w>
prou d</w>
grow th.</w>
vi ously,</w>
strengthen ed</w>
s wi
practi ce,</w>
succe eded</w>
reflec ts</w>
ne arly</w>
stre am
pres su
occa sion</w>
promis ed</w>
per secu
head ing</w>
Environ ment</w>
technolo gi
ble ,</w>
c li
bre ak
thorou gh</w>
i um</w>
draf ting</w>
Fol lowing</w>
momen t.</w>
equip ment</w>
implic ations</w>
welcom ed</w>
show ing</w>
interest .</w>
fi es</w>
em br
F ree
W est</w>
200 3</w>
f loo
expres sing</w>
King dom
coun ter</w>
poin ting</w>
pill ar</w>
b ad
la sting</w>
f res
f ers</w>
F ri
je op
compan ies.</w>
b ul
N ic
Mol do
ste m</w>
defic it</w>
Le ban
unaccep table.</w>
state s,</w>
min utes</w>
fall s</w>
agen ci
ag u
lear ning</w>
Commun ity.</w>
Safe ty</w>
ti vely.</w>
alle r</w>
Budge ts</w>
Organ isation</w>
wi des
ter s.</w>
sche du
tur ning</w>
m ag
plac ing</w>
for cing</w>
19 7
har dly</w>
st ay</w>
g ri
om in
2 3</w>
ti gh
this :</w>
elimin ate</w>
acci dents</w>
stres sed</w>
p ap
incorpor ated</w>
K ur
C ri
sup pl
negoti ated</w>
(A 4-0
plan ts</w>
mb er,</w>
initiati ve,</w>
f low
elec tions.</w>
ag es,</w>
Netherlan ds</w>
20 0</w>
st age.</w>
glob alis
th ly,</w>
re action</w>
en lar
hel p
( L
real ity.</w>
fron t</w>
who le,</w>
il .</w>
ambi gu
sug ar</w>
justi fy</w>
to col
prospec ts</w>
fac ts</w>
chair man</w>
t ance</w>
s op
opti mis
S im
pu ts</w>
re r</w>
b ound</w>
Cha ir
i ted</w>
ag es.</w>
sm aller</w>
ou red</w>
cl aims</w>
circumstan ces,</w>
Peop le</w>
le d,</w>
adop ted,</w>
E I
tim es,</w>
feder al</w>
tru ction</w>
targe ted</w>
sh e
prosper ity</w>
ar ly,</w>
sh r
resul ted</w>
read ing.</w>
projec t.</w>
p ra
industri es</w>
6 0</w>
materi als</w>
complic ated</w>
char ges</w>
abo li
man ner.</w>
is on</w>
terri ble</w>
sustain ability</w>
order .</w>
. )</w>
z ,</w>
wh y,</w>
ful .</w>
w ine</w>
thu si
red un
process ing</w>
f re
scho ol
ing u
undermin e</w>
trans atlantic</w>
y '</w>
negoti ate</w>
al ong
200 0,</w>
stoc k</w>
des truction</w>
to ols</w>
stu ff
im port</w>
F is
tw o-
tex ts</w>
spee ches</w>
control led</w>
v est
importan ce.</w>
Ombud sman</w>
under line</w>
tack ling</w>
op s</w>
finan ced</w>
sm all
sin ce
re tain</w>
er y</w>
prospec t</w>
Gen ev
Barro so</w>
200 2</w>
par alle
aw are,</w>
2 2</w>
z ed</w>
him self</w>
bro ader</w>
ab an
Ara b</w>
tu res</w>
tiv ity</w>
milli on.</w>
fe wer</w>
doub ts</w>
de ca
ab or
cri me.</w>
car s</w>
mo tions</w>
educ ational</w>
d es,</w>
s cep
perio d.</w>
m ed</w>
constitu tion</w>
citi es</w>
199 8</w>
repeate dly</w>
comb ined</w>
regul ate</w>
dynam ic</w>
Bra z
pro cu
be low</w>
s ought</w>
cu ts</w>
air cra
afra id</w>
There fore</w>
Islam ic</w>
y our
pur poses</w>
excep tional</w>
J e
v ince</w>
sor ry</w>
be came</w>
M er
pl a
Turke y.</w>
pur po
exclu sion</w>
des tin
bo t
(S V)</w>
consider ably</w>
ce le
tw en
ar ticle</w>
2 .
sy m
Proce dure</w>
atu res</w>
vis ion
non e
integr ation.</w>
adop ted.</w>
achie ved.</w>
Committe e,</w>
imag ine</w>
foo t
aban don
S pe
F ree</w>
it s,</w>
ex ports</w>
Part nership</w>
contin ent</w>
objectiv es,</w>
control .</w>
comple x
satisfac tion</w>
rel ate</w>
initiati ve.</w>
commissi on
can ,</w>
fi ed.</w>
O ver</w>
rati fied</w>
jur is
tribu te</w>
sa ke</w>
el der
di c</w>
preser ve</w>
mo re.</w>
achie vement</w>
Croati a</w>
ul t</w>
subjec t,</w>
P ,</w>
20 %</w>
time table</w>
P at
in st
advanta ges</w>
s low
pover ty,</w>
contr acts</w>
V an</w>
top ic</w>
op tions</w>
marke ting</w>
for .</w>
en thusi
So vie
co vers</w>
Sy ri
P SE</w>
I G
Irel and,</w>
govern ment,</w>
k ing.</w>
col lap
ca using</w>
ple as
plea sure</w>
symp ath
fri ends</w>
In vest
6 -0
jeop ar
pos ite</w>
equi val
C er
fin ally,</w>
connec ted</w>
O LA
A p
chan ne
un necessary</w>
res ist
ra w</w>
amen d</w>
tab ility</w>
transparen cy,</w>
ling u
k es</w>
accoun t.</w>
B SE</w>
in vi
civili an</w>
warm ly</w>
restric ted</w>
comm it</w>
reason s.</w>
deser ve</w>
ad ing</w>
n y
surpr ised</w>
bi a</w>
b lo
Associ ation</w>
obtain ed</w>
bo ar
recei ving</w>
EC )</w>
Commun it
unanim ously</w>
he re
cle are
Parliament '</w>
ac ted</w>
si x
do ssi
deter i
sur pris
st age,</w>
projec ts.</w>
of fering</w>
nation als</w>
gener al,</w>
encoura ged</w>
bureaucr atic</w>
su spec
mean ing</w>
in ary</w>
eth ical</w>
prec au
pati ents</w>
h it</w>
evi den
men .</w>
rapi dly</w>
f ran
ce ment</w>
boo st</w>
an other.</w>
Cy pr
sever e</w>
like ,</w>
en n
dispos al</w>
alloc ation</w>
I S</w>
indic ate</w>
dig ital</w>
att ack
ad mit</w>
tak en.</w>
D ef
200 0
justi ce.</w>
regar dless</w>
listen ed</w>
out standing</w>
identi ty</w>
atis ation</w>
Afghan ist
3 1</w>
standar ds,</w>
- year</w>
tion ally</w>
environment ally</w>
N one
open ness</w>
respec ted</w>
eco logical</w>
ad ic
pre feren
coordin ate</w>
aboli tion</w>
popul ation.</w>
physi cal</w>
ac tions.</w>
A ,</w>
or ing</w>
m ing</w>
decl are</w>
B as
ch i
p ilo
fres h</w>
Swe den
pover ty.</w>
accompan ied</w>
Li by
principle .</w>
inten si
dep th</w>
E P
si ght</w>
join tly</w>
emphas ised</w>
an ts,</w>
trans l
threat s</w>
dispu te</w>
agricul ture,</w>
opinion .</w>
ishe d.</w>
kin ds</w>
iz ation</w>
fe ed</w>
enthusi as
T im
occa sions</w>
Y es,</w>
Fis ch
streng th</w>
en e
cost s.</w>
Maastrich t</w>
se min
’ ,</w>
sh aring</w>
rail way</w>
demon strates</w>
consum ers,</w>
De clar
. '</w>
S he</w>
less ons</w>
che a
Al ger
ri gor
inter nation
en ding</w>
Afghan istan</w>
Union '</w>
tre at</w>
Chech ny
w ards</w>
recommen d</w>
n one</w>
exam ined</w>
cou ple</w>
ten tion</w>
2 6</w>
rein force</w>
coun t</w>
Dec is
regret table</w>
T ime</w>
thir d-
extra ordinary</w>
dr in
demo graphic</w>
L on
H ar
us e.</w>
leg ed</w>
etc .</w>
contro versi
ri d</w>
sen ding</w>
lar ger</w>
represent ation</w>
organ ise</w>
me mor
comple ted</w>
k es
con ta
sha res</w>
k a</w>
eng aged</w>
Moldo v
wor ding</w>
f ro
adverti sing</w>
ac king</w>
T ha
Pro tocol</w>
with draw</w>
tradi tion</w>
li min
inter governmental</w>
ar ise</w>
W e
2 1
par ties.</w>
form ed</w>
ar ising</w>
w age</w>
no on.</w>
interven e</w>
alco ho
O ther
solidar ity.</w>
prison ers</w>
mar ine</w>
L ab
state s.</w>
grou p.</w>
budge ts</w>
A ID
199 7</w>
wides pread</w>
inform al</w>
fl ag
be ef</w>
S to
pl ays</w>
pro duce
op posite</w>
200 1</w>
u tr
performan ce</w>
harm ac
Co he
we red</w>
parlia ment</w>
trage dy</w>
as s</w>
with draw
prepar ations</w>
m ber.</w>
congratul ating</w>
approxim ately</w>
unanim ous</w>
shor t,</w>
sav ings</w>
produc tion.</w>
der ing</w>
Sovie t</w>
wor rying</w>
we alth</w>
requ is
m itte
enni um</w>
ac y.</w>
Ob jec
princi p
aim ing</w>
produc tion,</w>
acci den
. m
over -
us ers</w>
hol ds</w>
enhan ced</w>
decision s.</w>
Presiden ts</w>
Invest ment</w>
prohi bi
K ar
3 0
respec ting</w>
E duc
Afric a,</w>
None theless,</w>
under take</w>
ey e</w>
explan ation</w>
incen tives</w>
S ar
us ed.</w>
tal ked</w>
isl and</w>
go t
along side</w>
er adic
al -
Ital y,</w>
Inter ne
Balk ans</w>
re pl
de ep</w>
The ir</w>
we ight</w>
i ous</w>
hol ders</w>
com pu
St atu
gradu ally</w>
Pe ti
Li ke</w>
de la
P .</w>
if ,</w>
evi dent</w>
b ank</w>
Fin n
ter ms.</w>
en opho
de pri
E very</w>
) :</w>
f em
entreprene ur
ign ore</w>
enc ing</w>
sha pe</w>
com e,</w>
w ai
sym bo
An y</w>
revis ed</w>
mo tiv
disab led</w>
L at
hor iz
abil ity,</w>
Austri a</w>
sta ke
organis ations,</w>
I F
mo ved</w>
b s</w>
atten tion.</w>
read ing,</w>
expen se</w>
agre es</w>
skill s</w>
fron ti
fir e</w>
character is
radic al</w>
don e
(CO M(
dist ingu
direc ted</w>
Serbi a</w>
day 's</w>
an ts.</w>
wide ly</w>
regar d.</w>
ful ,</w>
D is
prof its</w>
inci den
Th us,</w>
post al</w>
ast ro
s ter</w>
fur ther.</w>
trans -European</w>
even ing</w>
di ed</w>
A b
far -
cent res</w>
p harmac
maintain ed</w>
lea der</w>
prior ity.</w>
perio d,</w>
fuel s</w>
speci es</w>
fo rest</w>
fam il
consequ ence</w>
t ac
sove reign</w>
pus h</w>
post -
defin ing</w>
Afric a.</w>
m ere</w>
ar rest</w>
Mo st</w>
who le
self ,</w>
s port</w>
colleagu es,</w>
a .m.</w>
min al</w>
juris dic
foun ded</w>
cover ing</w>
n ess,</w>
ad vice</w>
acci dent</w>
unfortun ate</w>
suspen ded</w>
obser v
en ing</w>
an ni
Sing le</w>
valu es.</w>
criter ia.</w>
cep tion</w>
(H -0
whe re.</w>
cle an</w>
I C
state .</w>
ren t</w>
elec tions,</w>
cir cul
Cohe sion</w>
fun ded</w>
defen ding</w>
frame work.</w>
cl arity</w>
medicin es</w>
basi cally</w>
simplif y</w>
re loc
importan tly,</w>
pur pos
in adequate</w>
ab sur
A sh
simpli fication</w>
for got
debate )</w>
play ers</w>
C 5-0
schem es</w>
c le</w>
no body</w>
in habit
settle ment</w>
real ity,</w>
nor thern</w>
li e</w>
pow er.</w>
inev it
econom ically</w>
U )</w>
N ice</w>
ri fic
ref use</w>
in toler
ei ther.</w>
draf ted</w>
R ec
dis cre
conclu de,</w>
So li
since rely</w>
famili ar</w>
sim ple
presen t.</w>
peac e.</w>
dialogu e,</w>
Europo l</w>
P le
responsibil ity,</w>
is ation,</w>
ili ties,</w>
found ations</w>
ob o
manufacture rs</w>
exclu sively</w>
chem ical</w>
centur y</w>
S A
prece den
en shr
concern .</w>
pursu ant</w>
pro tocol</w>
frame work,</w>
ator s,</w>
ation ?</w>
Soli dar
de le
h a</w>
g ol
conta min
Y our</w>
whi le,</w>
inv ite</w>
amend ment,</w>
Lisb on,</w>
beli ef</w>
b on
proce dur
pro mise</w>
g es
de dic
righ t
pus h
pow er,</w>
ori en
enlar ged</w>
Lab our</w>
g ro
chem ic
is ation.</w>
we ak</w>
m ach
Lon d
bu y</w>
ban king</w>
b es
s and</w>
Sim il
loo ks</w>
Conven tion.</w>
proble m
emissi on</w>
credi ble</w>
pre fer</w>
low -
extre mis
- to-
tan gible</w>
restric t</w>
reser vations</w>
repe ated</w>
ar ding</w>
Wel l,</w>
Treati es</w>
Pro di</w>
n ar
b lin
F ron
Conven tion,</w>
roo ts</w>
ey es</w>
effec t.</w>
Represen tative</w>
Ber lin</w>
stric tly</w>
forwar d,</w>
fac ilities</w>
se ction</w>
re ti
impro ve
declar ations</w>
GD P</w>
rel ations.</w>
matter s,</w>
Con serv
Stras bour
w o
pl us</w>
ne d.</w>
implemen ted.</w>
con fu
2 8</w>
exclu ded</w>
200 0.</w>
regul ar
phenomen on</w>
cri me,</w>
ser vation</w>
200 9.</w>
( debate)</w>
uni que</w>
subjec ts</w>
counter fe
complain ts</w>
competen ces</w>
R i
rec y
health care</w>
fru it</w>
e ;</w>
Finn ish</w>
quot a</w>
particul ar.</w>
war ning</w>
im posing</w>
explain ed</w>
ter ing</w>
fic ation,</w>
sign ing</w>
sen se,</w>
frequ ently</w>
Ag ain
pl ur
ne x</w>
legitim acy</w>
border s,</w>
tu s</w>
er o
far ,</w>
e 's</w>
dialogu e.</w>
Reg arding</w>
199 6</w>
under lying</w>
four th</w>
be long</w>
st ree
l a</w>
c am
Spain ,</w>
w as,</w>
ro le.</w>
percen tage</w>
fe a
emer ging</w>
beg an</w>
ac y,</w>
sugges tions</w>
con stra
str ing
wha t
reform .</w>
procedu res.</w>
im per
effec tive.</w>
categor y</w>
l or
b un
themsel ves,</w>
projec ts,</w>
mention ed.</w>
fle e
d '
D ub
applic ations</w>
an -
view ed</w>
200 7
(H U)</w>
te s
ne utr
fo rese
Barro so,</w>
pre limin
solidar ity,</w>
affor d</w>
per mit</w>
ni gh
mis take</w>
excep tion</w>
comp li
M s</w>
Gree ce,</w>
texti le</w>
sac rific
ca su
y ’s</w>
ver i
secre t</w>
pat ent</w>
paragrap h
govern ment.</w>
contribu ting</w>
tra ted</w>
dead line</w>
con ces
multi -
procedur al</w>
rejec tion</w>
ri ed</w>
rapporteur s,</w>
dis par
what so
train ing,</w>
remo ved</w>
even t,</w>
e ding</w>
M ill
invol ved,</w>
at .</w>
h in
distin ction</w>
condem ned</w>
undertak ings</w>
ra ises</w>
progres s,</w>
il s</w>
gu il
coast al</w>
ate ly.</w>
ne x
h ence</w>
chec ks</w>
benefici al</w>
be ings</w>
M ex
vi able</w>
prelimin ary</w>
ho sp
ac cur
Mex ic
join ing</w>
divi ded</w>
hon est</w>
exten t,</w>
as ser
repor ted</w>
regis tr
par ties,</w>
mi d-
d es.</w>
al ity,</w>
c ard</w>
W ritten</w>
w ing</w>
institu tion
cont acts</w>
5 0
surroun ding</w>
poin ts,</w>
collab oration</w>
U K
ter most</w>
pres sing</w>
cru ci
back ground</w>
world wide</w>
subsequ ent</w>
state ,</w>
on es.</w>
medi um</w>
manag ing</w>
jeopar dis
interest s,</w>
preven tive</w>
In formation</w>
te sts</w>
s on
do or</w>
dependen ce</w>
broad ca
abil ity.</w>
Secre tar
usu al</w>
estima ted</w>
rea u</w>
mono po
in fec
tonn es</w>
si gh
h es
wee k.</w>
lo sing</w>
usu ally</w>
ou termost</w>
mo b
sector s.</w>
mone y,</w>
8 0</w>
represen ting</w>
p tion</w>
ilo sop
W ed
tiv es.</w>
prior ities.</w>
parlia ment
congratul ations</w>
ation ;</w>
ag gres
Liber al</w>
Def ence</w>
Brit ain</w>
le f
highligh ts</w>
di vision</w>
clo sure</w>
Democr atic</w>
govern ments,</w>
1 %</w>
x enopho
Wed nes
s qu
port s.</w>
gene tically</w>
soci o-
show ed</w>
G MO
Cri minal</w>
al ity.</w>
Sto ck
we igh
tor s,</w>
ph ilosop
col on
as es</w>
Tw o</w>
Euro- Mediterranean</w>
200 4,</w>
inter im</w>
compromis e.</w>
ar bit
In stead,</w>
Al low</w>
uni versi
popul ation,</w>
Commun ity,</w>
Commun ist</w>
mob ile</w>
dev ast
aliz ation</w>
ai l</w>
valu es,</w>
stri ke</w>
quir y</w>
lan d.</w>
desira ble</w>
201 0.</w>
2 9</w>
is :</w>
vehic le</w>
cost s,</w>
abstain ed</w>
T ech
urgen cy</w>
w ater
p in
li ability</w>
avail able.</w>
research .</w>
preven ted</w>
S h
Iraq i</w>
re placed</w>
/9 7
ing ly,</w>
ten ,</w>
safeguar ding</w>
ing ?</w>
Ombud s
200 6,</w>
tren d</w>
syste matic</w>
partner s.</w>
monit o
down .</w>
critic is
con vention</w>
as pir
reg im
ni ght</w>
mar ks</w>
integr ate</w>
every body</w>
ce d,</w>
wat ers</w>
viol ent</w>
viol ence,</w>
respec ts</w>
in ess</w>
done si
amend ment.</w>
agenda ,</w>
Pak ist
In donesi
strugg le</w>
ke en</w>
acces sible</w>
popul ar</w>
obser ve</w>
no tably</w>
dra matic</w>
Direc tive,</w>
z ing</w>
you th</w>
tic .</w>
projec t,</w>
fic ation.</w>
viol ence.</w>
tr ou
pri me</w>
fail ing</w>
answ er.</w>
to tal
th ings.</w>
re tain
re af
lin e.</w>
form ing</w>
fir st,</w>
Bu t,</w>
equival ent</w>
men ted</w>
Pro di
Direc tor
quo te</w>
minis ter</w>
der i
b oun
foo d
Contro l</w>
marg in
join ed</w>
free ly</w>
Solidar ity</w>
Nor dic</w>
pic ture</w>
b all</w>
liber alis
gr ati
fail u
contain ing</w>
I I
anni vers
Chin a.</w>
way s,</w>
rou s</w>
con ve
Citizen s'</w>
organis ations.</w>
harmon ised</w>
cu tting</w>
Objec tive</w>
short- term</w>
ol der</w>
bat tle</w>
At lantic</w>
ref used</w>
ic .</w>
H am
ro g
par ti
Genev a</w>
EC B</w>
Women 's</w>
transparen cy.</w>
sh ar
i or</w>
encoura ge
compe te</w>
supervis ory</w>
reform ,</w>
r ation
Soci alists</w>
M ic
Georgi a</w>
us eful
un employment,</w>
death s</w>
correc tly</w>
Th rou
Peop le
stabil ity,</w>
ma y
interest ,</w>
del ays</w>
con vince</w>
arbit r
Communit y's</w>
200 9,</w>
whole hear
thorou gh
occur red</w>
diver si
I M
sligh tly</w>
re sumed</w>
rati fy</w>
consider ations</w>
bur g</w>
al be
D e</w>
vis ual</w>
bloc k</w>
accep tance</w>
Asi a</w>
report s.</w>
fiel d,</w>
Ye ar</w>
ris ing</w>
Mus li
pursu ed</w>
howe ver.</w>
d den</w>
am ,</w>
report s,</w>
presen tation</w>
politic al,</w>
n ine</w>
pen sions</w>
n ess.</w>
minu te</w>
in adequ
f ligh
d ating</w>
ate ll
air lines</w>
Direc tive.</w>
transi t</w>
incorpor ate</w>
S ome
P i
sugges tion</w>
educ ation.</w>
candid ates</w>
alis ts,</w>
Affair s.</w>
tri c</w>
solu tion,</w>
g ress</w>
/ E
none theless</w>
exper ti
N ig
time ly</w>
soli d</w>
prof it</w>
im pres
cleare r</w>
albe it</w>
Bosni a</w>
A )</w>
us e,</w>
sol di
20 20
tiv es,</w>
li ves.</w>
dec entr
apparen t</w>
Fin land</w>
sla ugh
objec tive.</w>
alcoho l</w>
a head
M i
2 5
tr ic
mean s,</w>
colle ction</w>
accep ting</w>
O SC
sh oul
fle et</w>
3 %</w>
visi ted</w>
sector s,</w>
justi ce,</w>
f la
Col om
thou sand</w>
order ,</w>
ful ly,</w>
Ple ase</w>
Industr y,</w>
under taking</w>
particip ating</w>
cele br
bor ne</w>
Righ ts.</w>
C hi
har d
al ed</w>
A bo
remar k
rac ism</w>
r ant</w>
pris on</w>
he u
fas hi
disap pointed</w>
B on
gu n</w>
confi dent</w>
s oun
infring ement</w>
nee ds.</w>
fi ed,</w>
cat astro
F if
199 9,</w>
follow -up</w>
shortcom ings</w>
s on,</w>
d red</w>
C ould</w>
vi gor
im ported</w>
h our
fa ith</w>
dec ent</w>
conclu des</w>
AL DE</w>
spee ch,</w>
resul t.</w>
ambi tion</w>
advoc ate</w>
B l
resol ving</w>
pharmac eu
con ce
coheren ce</w>
Fun d,</w>
Est on
jud ge</w>
hun dred</w>
dump ing</w>
cris es</w>
( Rule</w>
tele communications</w>
pre requis
9 )</w>
partner s,</w>
p ical</w>
it ly</w>
commun ity.</w>
penal ties</w>
n it
contro l,</w>
si de,</w>
har m</w>
finan ci
aircra ft</w>
tab il
peri ods</w>
Bu reau</w>
tu m
business es,</w>
E S
s l
hon es
acce ler
3 00</w>
pes tici
acqu is</w>
third- country</w>
l y-
comm o
pun ish
atic ,</w>
L o
D el
gain ed</w>
expen sive</w>
a ded</w>
promis es</w>
Secretar y-
pl at
nee ded,</w>
neg lec
inten tions</w>
in side</w>
Sch ul
fo rec
str ö
nee d,</w>
los ses</w>
ex ha
advan ced</w>
scho ols</w>
mo tor</w>
main ten
hand ling</w>
Nig er
tic ,</w>
evalu ate</w>
activi ties,</w>
part- ses
p .m
innov ation,</w>
regis ter</w>
non- governmental</w>
impe tus</w>
busin ess.</w>
Servic es</w>
vote )</w>
pro lif
dri ve</w>
organ ic</w>
fail s</w>
d ate,</w>
criter ia,</w>
stu dents</w>
in ven
dis agree</w>
conflic t.</w>
no ise</w>
euro ,</w>
effec tively.</w>
Pl an</w>
D u
regul ations.</w>
euro .</w>
enterpris es,</w>
ate n</w>
level s.</w>
for um</w>
E A
goo d,</w>
er t</w>
Portug al,</w>
O ther</w>
200 7,</w>
- related</w>
require ments.</w>
re act</w>
procu rement</w>
pra g
indic ators</w>
dis man
/9 8
tor s.</w>
rul ing</w>
200 3,</w>
subsequ ently</w>
herit age</w>
al one.</w>
follow s</w>
controversi al</w>
contr act</w>
vig il
par t.</w>
li ked</w>
im age</w>
der s,</w>
Kore a</w>
ap pointment</w>
W al
200 6.</w>
wh el
Simil arly,</w>
w in</w>
promo ted</w>
procedu res,</w>
manage ment.</w>
con servation</w>
Thurs day</w>
vir tually</w>
regul arly</w>
neighbour s</w>
experi encing</w>
excep t</w>
compar ison</w>
200 5,</w>
pursu ing</w>
immigr ation,</w>
effec tive,</w>
ear th
at mo
Abo ve</w>
prior iti
paralle l</w>
k i</w>
hal f
Mill ennium</w>
5 0%</w>
t i</w>
reci pro
over whel
hel ps</w>
even tually</w>
ati ve.</w>
reser ve</w>
re per
sign s</w>
in sufficient</w>
enter ing</w>
prev ail
day s,</w>
An y
stabil ity.</w>
ve ge
v olu
focus ing</w>
ei j
200 8,</w>
threaten ed</w>
author isation</w>
S wit
S )
un certainty</w>
pilo t</w>
per mitted</w>
stic k</w>
port s,</w>
tri es</w>
bre ach</w>
at o
( EC)</w>
ran ging</w>
ir regular
ill ance</w>
ho ped</w>
C au
se arch</w>
m ir
er al</w>
Amster dam
soci al,</w>
restric tive</w>
recogn ises</w>
ke d.</w>
bl ame</w>
socie ties</w>
re pu
de part
annivers ary</w>
vari ety</w>
concentr ation</w>
Ver heu
' no
jour ne
fo re.</w>
withdraw al</w>
in ts</w>
im prison
exam ining</w>
enterpris es.</w>
be fore,</w>
kil led</w>
direc tion,</w>
A R
technolog y.</w>
sci ence</w>
milli on,</w>
Swit zer
Pak istan</w>
201 0,</w>
200 7.</w>
s low</w>
ite ms</w>
c ere</w>
Procedu re.</w>
unil ateral</w>
gradu al</w>
go vin
fre ight</w>
ac tions,</w>
recon cil
op ing</w>
Wh o</w>
E qu
200 4.</w>
tro ops</w>
technolog y,</w>
ban k
With in</w>
G ra
th ree
lea ves</w>
integr ation,</w>
incen tive</w>
invi ted</w>
enab les</w>
a ;</w>
se e,</w>
pro p
cour se.</w>
consisten cy</w>
attach ed</w>
speak ing,</w>
mor ning,</w>
al one,</w>
Offic e</w>
Declar ation</w>
new ,</w>
f ast</w>
es cal
thres hold</w>
to x
refuge e</w>
reach es</w>
re su
clas s</w>
Irel and.</w>
C ulture</w>
sin cere</w>
Govern ment.</w>
4 0
ator s.</w>
ze govin
res or
ma p</w>
infl ation</w>
de voted</w>
de te
cli ma
Lisb on.</w>
Her zegovin
C lear
C as
2 7
( vote)</w>
tr ack</w>
ten den
Iraq ,</w>
so f
s car
ha m
Pol and,</w>
socio- economic</w>
mand atory</w>
Do ha</w>
Centr e</w>
string ent</w>
me d.</w>
g row</w>
war ,</w>
surve illance</w>
fun ding.</w>
fem ale</w>
Stock hol
In stead</w>
ter ial</w>
pres cri
continu ation</w>
cohe sion.</w>
P re
E ast.</w>
s ad</w>
off en
commen d</w>
ce d.</w>
standar dis
quick ly.</w>
pric es.</w>
paren ts</w>
lin e,</w>
200 8.</w>
neighbour hood</w>
ho st</w>
des truc
tive ly,</w>
precau tionary</w>
employ ers</w>
emissi ons.</w>
cour ts</w>
Procedu re,</w>
si t</w>
obser vation</w>
indic ation</w>
g ross</w>
Egy p
work ers'</w>
statis tical</w>
st ain</w>
sa ving</w>
ir ing</w>
con cen
philosop h
objec tive,</w>
o ci
listen ing</w>
in stance</w>
ten d</w>
s cre
exam ination</w>
I )</w>
tim es.</w>
g ap
dis char
ar my</w>
respec ted.</w>
reduc tions</w>
fif teen</w>
fi xed</w>
draf t
cl aimed</w>
te ly,</w>
si de.</w>
natu re.</w>
fif th</w>
cance r</w>
H I
Clear ly,</w>
Author ity</w>
tak en,</w>
ref us
ment ation</w>
con text.</w>
an other,</w>
groun d.</w>
bureaucr acy</w>
bet ter.</w>
199 5</w>
person nel</w>
del ay
ch -
plan ,</w>
help ful</w>
consul ted</w>
chap ter</w>
au tum
Re form</w>
agricul ture.</w>
Iraq .</w>
Budge t</w>
be gun</w>
Wh ilst</w>
Par ty,</w>
un employment.</w>
dis tur
compromis e,</w>
arri ve</w>
accoun ting</w>
Americ ans</w>
food stuff
an xi
discus sion.</w>
al ities</w>
voc ational</w>
mee ts</w>
ly mp
g s</w>
dist ance</w>
Gre at</w>
pre text</w>
f low</w>
s es.</w>
in ju
horiz on
effec t,</w>
com it
blo od</w>
Brussel s.</w>
justi fication</w>
destro y</w>
us ted</w>
reper cus
own -
govern ment
as semb
cul ture,</w>
c ope</w>
ation :</w>
war .</w>
re porting</w>
prote st</w>
pi pe
iz ed</w>
differen ti
mean ing
head s</w>
cor responding</w>
ag ement</w>
3 5</w>
regul ations,</w>
gener ate</w>
ent ly.</w>
discrimin ation.</w>
W ould</w>
i el
enab led</w>
a war
Chair man</w>
renew ed</w>
mit ting</w>
life long</w>
gen ,</w>
dan gers</w>
lear ned</w>
O lymp
ten s</w>
necess ity</w>
i .</w>
consul t
victi m</w>
ris k.</w>
n an
envis aged</w>
c y's</w>
te am</w>
ro le,</w>
pre judic
pe d.</w>
ine qual
de lic
an t
J ul
B ö
one 's</w>
Kosovo ,</w>
sp ic
pri o
an d-
Cy prio
t on,</w>
rel ations,</w>
mp tion</w>
incre di
me d,</w>
l aying</w>
pe ,</w>
le ge</w>
in sul
ho o
st one</w>
ques tions,</w>
farmer s,</w>
Engl ish</w>
require d.</w>
endor sed</w>
clari fication</w>
argu e</w>
ap pointed</w>
pe .</w>
mainten ance</w>
w s</w>
I N
tele ph
natu re,</w>
immigr ation.</w>
ra dio
presen ts</w>
judg ment</w>
dam aging</w>
can not,</w>
sol ved</w>
si ve,</w>
lo ans</w>
f it</w>
W all
Decis ion</w>
un employed</w>
trans actions</w>
ref lection</w>
redun dan
Palestin ians</w>
Belgi um</w>
under stan
recy cl
E r
z z
tou ch</w>
this ?</w>
popul ations</w>
medicin al</w>
der s.</w>
Jap an</w>
so le</w>
rec ru
finan c
den ied</w>
b y-
alis m,</w>
a ma
Hel sin
where ver</w>
s /
prepar atory</w>
circumstan ces.</w>
ces sion</w>
Liber als</w>
3 7
presiden tial</w>
n ic
ishe d,</w>
cas es.</w>
A pr
spr ing</w>
is e,</w>
goo d.</w>
exis t.</w>
commun ity,</w>
buil dings</w>
b lack</w>
substan tially</w>
su ch,</w>
bor n</w>
scen ari
him .</w>
enshr ined</w>
st ages</w>
reven ue</w>
peri ph
den y</w>
categor ies</w>
ass is
ard ous</w>
o logy</w>
integr ity</w>
Iran ian</w>
G UE
w estern</w>
im peri
EM U</w>
won der
perspec tive,</w>
C I
th s</w>
sympath y</w>
expan sion</w>
dro p</w>
ta ke.</w>
occu pi
fl u
enough ,</w>
alogu e</w>
Dub lin</w>
1 0%</w>
fe ars</w>
cul tiv
al arm
NA TO
Hung ary</w>
unanim ity</w>
pen sion
tri al</w>
h our</w>
Glob alisation</w>
t '</w>
min or</w>
manage ment,</w>
K )</w>
2 9
wor th
ju dge
/ NG
un de
pro ven</w>
earli er,</w>
ans wered</w>
a ’s</w>
T ai
explic itly</w>
cat ch</w>
business es.</w>
Gaz a</w>
regi me.</w>
programm ing</w>
en ts.</w>
des per
ar ma
Ban k,</w>
happen .</w>
fall ing</w>
dr as
GUE /NG
ten e
quali fications</w>
far- reaching</w>
explan ations</w>
er r
da ,</w>
tru e,</w>
st ating</w>
sib ility</w>
residen ce</w>
plan .</w>
paragraph s</w>
Th is,</w>
(S K)</w>
d ary</w>
consoli date</w>
Committe e.</w>
su ms</w>
solu tions.</w>
progres sive</w>
elder ly</w>
d ate.</w>
author ised</w>
wh ol
tan e
obser ved</w>
mis sing</w>
d in
connec tion,</w>
campaign s</w>
2007 -201
visi ble</w>
sal es</w>
en ever</w>
dri vers</w>
B i
sh el
registr ation</w>
f an
exc use</w>
condi tional</w>
journ alists</w>
dio visual</w>
decision s,</w>
Ti be
199 9.</w>
spe ction</w>
re me
multi annual</w>
law y
er b
E ur
C ul
we b
seri ously.</w>
referen ces</w>
isl an
3 .
wat er,</w>
sum mer</w>
f ought</w>
detri ment</w>
appl au
year 's</w>
val id</w>
or g
implement ation.</w>
c ast</w>
yester day,</w>
haz ardous</w>
ex changes</w>
sta ke</w>
de pl
co f
US D</w>
Spe cial</w>
wh en,</w>
volu me</w>
groun d,</w>
assess ing</w>
PP E</w>
Every one</w>
struc k</w>
consider ation.</w>
bil ity.</w>
E ast,</w>
proportion ate</w>
noti ce</w>
l es
investig ate</w>
gen oci
(C S)</w>
sum mar
ing -
con cei
on es,</w>
competitiven ess.</w>
characteris tics</w>
comple tion</w>
adequ ately</w>
G ali
Constitu tion.</w>
2 4
par tial</w>
initi ally</w>
fore most</w>
Po li
Gali le
Fun d.</w>
shi ft</w>
rou te</w>
duce d.</w>
ben ch
Al so,</w>
p sy
ne d,</w>
ing ;</w>
er -
accus ed</w>
Roman ian</w>
Develop ment,</w>
200 5.</w>
apparen tly</w>
st -
own- initiative</w>
li ves
foun dation</w>
Member s.</w>
z ation</w>
we al
s ly</w>
ir respective</w>
essenti al.</w>
1 /200
hom o
f ing
choic es</w>
acknowled ged</w>
Constitu tion,</w>
t ling</w>
p ace</w>
out lined</w>
ge ous</w>
fundament ally</w>
S ,</w>
A mon
sim pl
represent ati
' the</w>
pack age.</w>
p act</w>
i j
earth qu
dat a,</w>
recommen ded</w>
ab and
rigor ous</w>
experi ences</w>
emer ged</w>
consequen ces.</w>
b ol
a ?</w>
princip al</w>
distin c
den oun
countri es'</w>
adver se</w>
tre mend
character ised</w>
R a
sy mb
he d.</w>
V o
Gu ine
200 2,</w>
we a
tou gh</w>
re pres
presiden cy,</w>
our ing</w>
y m
no tion</w>
in dis
b loo
air ports</w>
Vi enn
govern ments.</w>
dis semin
consoli dation</w>
concern s.</w>
M ul
Kosovo .</w>
I f,</w>
ser ves</w>
pharmaceu tical</w>
( 2)</w>
poten tially</w>
harmon ise</w>
go .</w>
aspec ts,</w>
religi on</w>
reform s.</w>
sit t
resist ance</w>
remo val</w>
re mem
exclu sive</w>
billi on.</w>
at ing,</w>
on to</w>
lingu istic</w>
b ran
S add
origin ally</w>
horizon tal</w>
deca des</w>
sugges ts</w>
road s</w>
occup ation</w>
mor ator
far .</w>
consisten tly</w>
achie vements</w>
GUE/NG L</w>
wom an</w>
v ity</w>
treati es</w>
recon ciliation</w>
man if
ir a</w>
gi r
dri ven</w>
disast rous</w>
di e</w>
bac king</w>
accur ate</w>
reco ver
bir th</w>
associ ations</w>
r ating</w>
ab uses</w>
your self</w>
ts /
th o
terroris ts</w>
ex p
conven i
comp lied</w>
s is</w>
par ad
convic tion</w>
large -scale</w>
la ted</w>
l acking</w>
inevit ably</w>
fran k
adap ted</w>
supp lies</w>
practic ally</w>
dis rup
Vi et
citizen ship</w>
Europe '</w>
sub stitu
stimul ate</w>
Lef t</w>
B 5-0
th ers</w>
pos t</w>
missi ons</w>
m ass
ce iling</w>
am es</w>
AL E</w>
sec tions</w>
se ly</w>
parliament ari
func tions</w>
cohe sion,</w>
ag eing</w>
Feder al</w>
C u
shor tly</w>
in spection</w>
tu de</w>
trans ferred</w>
l ess.</w>
finan ces</w>
Mon tene
inter n
forest s</w>
deci ding</w>
stric ter</w>
l iter
judic i
ge ts</w>
Ver ts/
pre mi
explo it</w>
ate s,</w>
assess ments</w>
Ob viously,</w>
te lling</w>
remain ed</w>
modern isation</w>
dat a.</w>
goo d
en ded</w>
al ing</w>
Kur dish</w>
y es,</w>
tra in</w>
occu r</w>
ph r
se as</w>
ri g
exper t</w>
Sa har
ul timate</w>
ter min
sp ac
leng th</w>
execu tive</w>
Cub a</w>
1 1.
un preceden
si tes</w>
pr ise</w>
fri end</w>
coordin ating</w>
vac cin
responsib ilities.</w>
endeav our</w>
W at
sol ving</w>
as surance</w>
Ar men
stra ight</w>
speak er
no tes</w>
mu ch.</w>
mo vements</w>
discrimin ation,</w>
ca re,</w>
unde res
sub -
ce as
on ing</w>
disadvanta ged</w>
way s.</w>
th ro
mo tor
T ri
statu te</w>
in di
en ts,</w>
doub t,</w>
cap e</w>
presiden t</w>
om en</w>
exac erb
R el
G al
principl es.</w>
tari ff</w>
f at
ex posed</w>
bio diversity</w>
tion ?</w>
resour ce</w>
consul tations</w>
ac qui
H is</w>
E D
obtain ing</w>
in- depth</w>
d or
contribu tes</w>
bil ity,</w>
An nex</w>
3 )</w>
trans port
poten ti
he avi
d den
cle an
be l
b a
8 0%</w>
pack age,</w>
ai j
aband on</w>
Turke y's</w>
ic al,</w>
f alle
falle n</w>
B lack</w>
inno cent</w>
att ach</w>
Verts/ ALE</w>
w sk
chemic als</w>
T u
Americ a,</w>
sen tence</w>
obser vers</w>
nu tri
lat er,</w>
assist ance.</w>
Canad a</w>
st ations</w>
fe ature</w>
avoi ding</w>
au diovisual</w>
Green s/
forgot ten</w>
end an
conven tions</w>
confu sion</w>
bad ly</w>
arri ved</w>
an ese</w>
a me
war m</w>
fo remo
te d
it ?</w>
h ur
fal se</w>
competitiven ess,</w>
Th an
Den mark</w>
system atically</w>
respon se.</w>
remin ded</w>
principl es,</w>
p ped</w>
fin ish</w>
appreci ation</w>
Alban ia</w>
200 1,</w>
sub s
mono poli
every day</w>
approach es</w>
Sh ould</w>
S al
pass ing</w>
of .</w>
importan ce,</w>
be long
achie ve
Brussel s,</w>
staf f
ra te,</w>
nam es</w>
fe atures</w>
2 %</w>
r ational</w>
perspec tive.</w>
deli vered</w>
alis m.</w>
Four thly,</w>
EC H
draft sman</w>
balan ces</w>
we re,</w>
servic e.</w>
pric es,</w>
facilit ating</w>
dec ad
Bar on
spec tr
safegu ards</w>
high- quality</w>
Statu te</w>
us ed,</w>
hope fully</w>
far m</w>
soci ally</w>
p.m .)</w>
innov ation.</w>
compar able</w>
question :</w>
inst all
all y-
A SE
se es</w>
in direct</w>
experti se</w>
corpor ate</w>
travel ling</w>
stor age</w>
resul ts,</w>
chea p</w>
R oth
occupi ed</w>
lic en
arti fici
Stockhol m</w>
Kingdom ,</w>
il li
form ally</w>
e '</w>
du al</w>
clo sing</w>
Other wise,</w>
Ne ighbour
persu ade</w>
investig ations</w>
g ust</w>
diversit y.</w>
de tain
ban ned</w>
atell ite</w>
Baron ess</w>
ta ke
prolif eration</w>
ma y,</w>
initi ated</w>
ideo logical</w>
h um
effor ts.</w>
bl ack
Yugosla vi
z i
major ity.</w>
exemp tion</w>
Asi an</w>
indis pens
es ’</w>
activ ity.</w>
D )
so ld</w>
han ded</w>
gener al.</w>
fo ster</w>
IG C</w>
mis takes</w>
le y</w>
dis gr
G ar
200 3.</w>
subjec ted</w>
se ll</w>
sal e</w>
refus al</w>
freedom .</w>
exis ten
docu ment,</w>
ate s.</w>
altern atives</w>
Tech no
Netherlan ds,</w>
in e,</w>
ha ve.</w>
ab out,</w>
Per spec
21 st</w>
tradi tions</w>
in d
cro ps</w>
ca re.</w>
ME D
K inno
g es,</w>
be fore.</w>
Greens/ European</w>
uni fication</w>
tor ture</w>
te sting</w>
la st,</w>
gra ve</w>
ac u
Throu gh</w>
sa y.</w>
W omen</w>
un certain
tic s,</w>
regul ating</w>
man o
ab sor
R ap
Free dom
Agree ment.</w>
sector al</w>
model .</w>
forest ry</w>
dat ab
blin d</w>
Rom e</w>
ro b
reform s,</w>
organiz ations</w>
ly :</w>
ag no
200 2.</w>
pen ing</w>
farmer s.</w>
Y or
Agric ul
trans position</w>
ness es</w>
model s</w>
ish ,</w>
histor y.</w>
f ate</w>
analy se</w>
al li
s !</w>
cum ul
ban an
Represen t
CF S
wish ed</w>
lim it
integr al</w>
fav our.</w>
Cau casu
si ve.</w>
s pre
prop ag
n ity</w>
lives to
dem ic</w>
A part</w>
heavi ly</w>
eu v
Sadd am</w>
ke t</w>
ful ly.</w>
democr atically</w>
de tention</w>
Bur ma
wholehear tedly</w>
instru ments.</w>
broad ly</w>
Roman ia,</w>
Macedon ia</w>
Hou se
(L T)</w>
mano euv
contin ent.</w>
ambi tions</w>
C 4-0
Ar c
mode l,</w>
inves ting</w>
in struc
cul ture.</w>
consis ts</w>
be l</w>
ar m</w>
Summ it,</w>
4 0%</w>
ten ing</w>
schedu led</w>
min ent</w>
instru ments,</w>
imper ative</w>
ensu red</w>
chang es.</w>
M ilo
D ar
ou d</w>
om al
objec t</w>
min d.</w>
exclu de</w>
Slovak ia</w>
A z
(F I)</w>
welcom e.</w>
unpreceden ted</w>
ter inary</w>
mid dle</w>
autom atically</w>
kin d.</w>
dispu tes</w>
delic ate</w>
con fin
atten d</w>
Ombuds man
obstac le</w>
ad ding</w>
Mo sco
Mem ber,</w>
G N
remo ving</w>
prep are
hou se
ensu res</w>
centur y.</w>
ac tors</w>
un equi
se r</w>
multin ation
deli ver
criter ion</w>
th i
lon ging</w>
id ance</w>
repercus sions</w>
hes it
efficienc y,</w>
desi gn</w>
decl ine</w>
compon ent</w>
Luxem bour
6 0
un ions</w>
se x</w>
govern ed</w>
An d,</w>
te am
threaten ing</w>
swi f
intelli gent</w>
ide al</w>
claus es</w>
H ence</w>
Decem ber,</w>
Brit ain
uti l
un like</w>
tack led</w>
t m
recogn ising</w>
pow ers,</w>
foremo st,</w>
addres ses</w>
achie ved,</w>
Natur ally,</w>
t less</w>
illu str
attemp ting</w>
Prote c
Lond on</w>
vir tu
territor ies</w>
ren ce</w>
follow s:</w>
ex pe
clear :</w>
re productive</w>
re plac
deman ded</w>
ad he
so il</w>
prior ities,</w>
communic ation,</w>
No ,</w>
Den mar
/ EC</w>
ti l
is ed.</w>
der .</w>
afterno on</w>
V al
sen se.</w>
pre fer
peti tion</w>
offic es</w>
lim iting</w>
al led</w>
im men
avail able,</w>
Ser vice</w>
toler ance</w>
rec ently,</w>
histor y,</w>
fam ous</w>
challeng es.</w>
gen ous</w>
ep ide
critic ised</w>
Septem ber,</w>
Secon d</w>
Austri a,</w>
w on</w>
e ast</w>
H us
(CO D)
trac e
te st
si mul
Prodi ,</w>
tech ni
gene tic</w>
cre ative</w>
3 0%</w>
secur ing</w>
jun ction</w>
com position</w>
thin ks</w>
ser ved</w>
own .</w>
hous ing</w>
fun ding,</w>
collap se</w>
attr active</w>
assu red</w>
O EC
s '.</w>
provi ders</w>
major ity,</w>
invest ment.</w>
cop y
Tha t,</w>
Again st</w>
4 00</w>
sit e</w>
OLA F</w>
initiati ves.</w>
em ed</w>
condi tion
wh enever</w>
sp ap
s li
ous ness</w>
ke d,</w>
invest ment,</w>
inter -
descri be</w>
aspec ts.</w>
M ay
C ur
B ol
perfec t</w>
h n</w>
cons ent</w>
cen tu
S up
Moroc co</w>
norm ally</w>
migr ants</w>
stres ses</w>
satis fy</w>
nee d.</w>
k -
go ,</w>
gi ven
Qu ite</w>
Sweden ,</w>
presiden cy.</w>
l ag
infrastructu re,</w>
im m
S te
xi de</w>
v on</w>
occa sions,</w>
E ach</w>
7 0</w>
st ag
r he
op pon
Min u
wor ried</w>
thir dly,</w>
s ports</w>
s es,</w>
inhabit ants</w>
flow s</w>
efficienc y.</w>
du ly</w>
day s.</w>
Strate gy.</w>
Olymp ic</w>
/200 1</w>
res cu
oursel ves.</w>
mur der</w>
ari ous</w>
air port</w>
accoun t,</w>
prof ound</w>
network s,</w>
is ed,</w>
comb ination</w>
as m
s outh</w>
rele ased</w>
prof it
mar king</w>
Neighbour hood</w>
Mar ch,</w>
prerequis ite</w>
monopo ly</w>
ing '</w>
di agno
app alling</w>
abol ish</w>
E uro</w>
tal ly,</w>
psy cho
open ly</w>
effici ently</w>
cho o
W e,</w>
Un til</w>
to ol
new spap
mac ro
far ms</w>
Ti bet
H ong</w>
Europe ans,</w>
C ap
roo t</w>
promo tes</w>
mor ning.</w>
gr ants</w>
agree ,</w>
absur d</w>
stri ve</w>
simpli fied</w>
prior ity,</w>
low est</w>
lear n
l ays</w>
emphas ises</w>
empha size</w>
/9 6
per cei
integr ating</w>
en em
down ,</w>
curren cy.</w>
concern ,</w>
at ing.</w>
retur ned</w>
mean s.</w>
feel s</w>
tw ice</w>
requ iring</w>
guil ty</w>
y le</w>
ul f</w>
ti tle</w>
human e</w>
fil l</w>
Y ester
Bur ma</w>
5 .
regim es</w>
dai ry</w>
cha in</w>
Conferen ce.</w>
vo ters</w>
ste p,</w>
produce r</w>
ic ally,</w>
g es.</w>
effor ts,</w>
compromis es</w>
indic ates</w>
affair s.</w>
subsidiar ity.</w>
s mu
resolution )</w>
less on</w>
Than ks</w>
whatso ever</w>
scrutin y</w>
jurisdic tion</w>
job .</w>
de fici
W ha
Moldov a</w>
Con cer
AID S</w>
ye t,</w>
witness ed</w>
ten ed</w>
tari ff
sy ner
rhe tor
recor ded</w>
pro -
demonstr ation</w>
N either</w>
Grou p
regis tered</w>
just ment</w>
e ds</w>
consequ ently</w>
busin ess,</w>
se ven
con firms</w>
Secretary- General</w>
wat er.</w>
tremend ous</w>
s pon
ear marked</w>
deteri or
adap tation</w>
Ac t</w>
man i
form ,</w>
children 's</w>
apo log
R ob
Chan cell
Au gust</w>
s atellite</w>
quic k</w>
gener ous</w>
defini tive</w>
con serv
comb ine</w>
collab or
Americ a.</w>
wron g.</w>
k y</w>
in quiry</w>
exer t</w>
excep tions</w>
el se,</w>
co inci
autonom y</w>
as sets</w>
Milo se
Ap pro
4 5</w>
w r
o v</w>
interpre ted</w>
ho li
d ged</w>
d '</w>
change d.</w>
bod y,</w>
T amp
Con ciliation</w>
summ it,</w>
remark able</w>
imm unity</w>
author .</w>
EI B</w>
sex u
s wit
opportun ity.</w>
n omin
ment ?</w>
ll ,</w>
else where</w>
destro yed</w>
Zimbab we</w>
Hus se
F lo
servic e,</w>
se t,</w>
rev olu
no tic
na me
focus es</w>
enjo yed</w>
de ad</w>
F ,</w>
ó n</w>
respon ses</w>
gener ated</w>
form .</w>
er ror</w>
diversit y,</w>
boo k</w>
adjust ment</w>
ac compl
Educ ation</w>
Democr at</w>
own ,</w>
lo gic</w>
l ing,</w>
critic ise</w>
back ed</w>
Indu stri
A .</w>
subsi dis
speaker )</w>
gr ass
Tamp ere</w>
sy n
su spic
r y
determin ing</w>
cor ner
Peti tions</w>
tabl ing</w>
see kers</w>
rel ative</w>
network s.</w>
expres sly</w>
universi ties</w>
ste p.</w>
en force</w>
discrimin atory</w>
cor respon
accoun tability</w>
Tour ism</w>
) 0
tion :</w>
scienti sts</w>
continu e.</w>
con junction</w>
co al</w>
bodi es,</w>
Tra de,</w>
thorough ly</w>
ment :</w>
il leg
enhan cing</w>
H u
top ical</w>
smu gg
part- session</w>
it ative</w>
alle vi
acti vis
wide -
territor y.</w>
po l
ow nership</w>
el se.</w>
dete c
ban ana</w>
B eij
sustain ed</w>
pen ding</w>
gain ing</w>
encoura ges</w>
com mend
su re,</w>
rou gh
mid- term</w>
implemen ted,</w>
dedic ated</w>
believ ed</w>
ag enc
201 1</w>
re di
organiz ation</w>
monito red</w>
inves tors</w>
Commission ers,</w>
Ch il
( 1)</w>
twen ty-
reser ves</w>
origin .</w>
mo ves</w>
fru it
deleg ations</w>
avail ability</w>
Council ’s</w>
tu red</w>
su dden
ri dic
opportun ity,</w>
mac ro-
gra de</w>
fe ed
ca uti
Green s</w>
lis ts</w>
expenditu re.</w>
desi red</w>
Ar ticles</w>
man ner,</w>
inter ference</w>
elimin ation</w>
Jun e,</w>
Egy pt</w>
Cer tain
ship ping</w>
pro tocol
periph eral</w>
b our</w>
Ukrain e,</w>
9 6
s sel
it ting</w>
appe ared</w>
Conferen ce,</w>
train ing.</w>
perspec tives</w>
partner ships</w>
difficul t.</w>
cost -
T om
S m
I L
Ad justment</w>
w ages</w>
tion ;</w>
gl ad
g a</w>
co ,</w>
N ations,</w>
EU '</w>
Cam bodi
was te.</w>
trans national</w>
spee ch.</w>
organiz ed</w>
meet ing,</w>
may be</w>
goo ds,</w>
differen t.</w>
Commun ic
year s'</w>
s me
reti rement</w>
level s,</w>
Re public,</w>
Institu te</w>
Agree ment,</w>
2 3
wonder ful</w>
rail ways</w>
r are</w>
ment ing</w>
m its</w>
m iti
gu e</w>
fin dings</w>
comprehen sible</w>
be s</w>
valu e.</w>
summ it.</w>
stra igh
si des,</w>
particip ants</w>
multin ational</w>
in a</w>
den i
conven tional</w>
S ever
u t</w>
soldi ers</w>
run s</w>
oursel ves,</w>
infring e
curren cy,</w>
cul tures</w>
S w
2 8
writ ing</w>
v ill
tru e.</w>
tas k.</w>
no -
ill -
ate -
ab ilities</w>
2 6
stri kes</w>
state ment,</w>
se ve
gui ded</w>
er a</w>
d ant</w>
Iran ,</w>
le m
fi res</w>
Ban k.</w>
rel uc
contro lling</w>
ad missi
Fer re
(C N
wa ke</w>
overwhel ming</w>
awa it</w>
ab i
E ri
( D
union .</w>
conces sions</w>
T A</w>
/97 )</w>
re pression</w>
purpo se.</w>
initi ate</w>
ev ol
d ates</w>
cl ass
La e
s w
ite c
even ts,</w>
co ali
a qu
I ce
se ment</w>
propos al
livesto ck</w>
initiati ves,</w>
Wor king</w>
Summ it.</w>
L D
war ran
unequi voc
sup porte
secon dary</w>
se t.</w>
li t</w>
ci es.</w>
Pro tocol
'no '</w>
pre ferred</w>
ing redi
identi fication</w>
dif fer</w>
de vote</w>
ation '</w>
as sum
Commission er
ri gi
criticis ms</w>
appli ed.</w>
Cha mber,</w>
poo rer</w>
ion .</w>
consi de
S ci
Helsin ki</w>
radio active</w>
e able</w>
bod y.</w>
ash ing
Si x
subsidiar ity,</w>
simplif ying</w>
re ta
en cies</w>
ban ning</w>
D a
vic tory</w>
technologi es,</w>
simul tane
k ill
dis placed</w>
decision- mak
victim s.</w>
organis ing</w>
li qui
him ,</w>
cau ght</w>
Res olution</w>
up hold</w>
technologi es.</w>
recycl ing</w>
r y,</w>
inves ted</w>
h r
establish es</w>
discus sion,</w>
democr atisation</w>
W ashing
Fr at
wish ing</w>
groun d
al read
/200 1)</w>
objec tions</w>
o x
gener ations</w>
diver se</w>
cal ly,</w>
arch itec
all er
Decem ber.</w>
D anu
pow ers.</w>
foo d,</w>
docu ment.</w>
C le
sup ran
mach in
Lithuan ia</w>
E R
Budge ts,</w>
Balk an</w>
t s'</w>
surpr ise</w>
post s</w>
inter oper
foot ball</w>
error s</w>
Yugosla via</w>
Sy stem</w>
Palest ine</w>
s y</w>
morator ium</w>
do ing,</w>
de fe
conclu ding</w>
Musli m</w>
vis as</w>
ur ged</w>
tra -
spe ed
rejec ting</w>
re fra
my self,</w>
bio logical</w>
accep table.</w>
Sw obo
Frat tin
A re
ul ar</w>
sk il
pro stitu
p raise</w>
or s,</w>
mat ure</w>
lo we
se at</w>
recogni ze</w>
ll s</w>
eng ine
du plic
wee ks,</w>
us h
irregular ities</w>
9 7
thre aten</w>
repl y.</w>
pat ri
medi a,</w>
in appropriate</w>
dre w</w>
S even
fulfil ling</w>
embar go</w>
activ ity,</w>
Israel ,</w>
Council '</w>
y n
proper ly.</w>
forec ast
eli gible</w>
do g
com ments.</w>
chang es,</w>
ad ul
perpe tr
fac es</w>
billi on,</w>
as ks</w>
Polic y.</w>
Par agrap
(CN S)
wr ite</w>
conve y</w>
cha mp
announ cement</w>
C limate</w>
trans fer
ter ly</w>
sha me
opportun ities.</w>
inequal ities</w>
RE AC
OSC E</w>
zer o</w>
mo ther</w>
manufac turing</w>
happen ,</w>
exam pl
en s</w>
comm od
N et
Ma y,</w>
secre tari
fur ther,</w>
fru str
accep ts</w>
op posi
brea king</w>
9 0</w>
tun a</w>
out set</w>
mis sed</w>
minis terial</w>
mani pul
la under
treat ment.</w>
to wn</w>
structu red</w>
self- employed</w>
re vi
in o</w>
bodi es.</w>
be ars</w>
am an
People ’s</w>
Nove mber,</w>
uni fied</w>
to m</w>
obser vations</w>
kes te
k 's</w>
fac ility</w>
essenti al,</w>
assess ed</w>
Slov ak</w>
Octo ber,</w>
O p
I ni
Democrat s,</w>
re alised</w>
momen tu
labe l</w>
explan atory</w>
expec t
exam in
ac a
Tu es
Any one</w>
tes ted</w>
practic es.</w>
hy dro
ci es,</w>
assist ance,</w>
tur n,</w>
tox ic</w>
scand al
rest s</w>
difficul t,</w>
aud it</w>
Pat ten</w>
Industri al</w>
Bol keste
v y</w>
sp lit</w>
road .</w>
public ation</w>
distribu ted</w>
crimin als</w>
balan ce.</w>
au th
atic .</w>
as sur
ar ance</w>
/98 )</w>
si de
mic ro-
ment ;</w>
contr ast</w>
bet ter,</w>
1 /
t s:</w>
per form</w>
origin ,</w>
h ne</w>
fur thermore,</w>
ex po
de par
clear ly,</w>
a '</w>
P en
Galile o</w>
rest ra
quar ters</w>
por no
o logical</w>
in he
ar ticles</w>
Secre tary</w>
seem ed</w>
purpos es.</w>
op t-
condem nation</w>
be ing,</w>
12 .
tic s.</w>
sh op
macro economic</w>
Pe ace</w>
Bar ni
top ics</w>
suspen sion</w>
s ity</w>
propag an
of -
i a's</w>
elimin ating</w>
com for
T it
3 8
199 8,</w>
subs cri
preser ving</w>
inci dents</w>
do es,</w>
contradic tion</w>
conflic t,</w>
be longing</w>
affec ted.</w>
Amon g</w>
undermin ing</w>
state ment.</w>
reme dy</w>
privi leged</w>
hypo cris
hap s,</w>
h n
explic it</w>
depen ding</w>
agenci es,</w>
affair s,</w>
Lat vi
preser vation</w>
ob vi
mean time,</w>
ing -up</w>
grati tude</w>
fligh ts</w>
don or</w>
ch ur
Tunis ia</w>
Mal ta</w>
bru tal</w>
appropri ate.</w>
aliz ed</w>
R ad
Pal aci
ta ,</w>
st ers</w>
so on
si an</w>
mi x
inter medi
' t</w>
wron g
wor ds.</w>
drin king</w>
disast er.</w>
dio xide</w>
succes s,</w>
deliber ately</w>
defic its</w>
Po et
se lection</w>
reas sure</w>
comple ment</w>
issu ing</w>
isol ated</w>
continu ous</w>
T AC
SME s,</w>
mod est</w>
minor ities,</w>
hun ger</w>
emissi ons,</w>
earthqu a
at trac
a sion</w>
Cha mber.</w>
reci pi
preven tion,</w>
else where.</w>
difficul ties.</w>
ce ?</w>
ar t</w>
acces sion.</w>
Democr acy</w>
Commission er's</w>
analys is,</w>
Concer ning</w>
r i</w>
pr in
parlia ments,</w>
ne ces
im bur
exp and</w>
exis t,</w>
depri ved</w>
b ree
Interne t.</w>
speci fied</w>
me t.</w>
is e.</w>
ion ,</w>
inter rup
govern ance,</w>
b be
al on
F u
priv acy</w>
nor th</w>
mer cur
main stream
ast -
appro ving</w>
Braz il</w>
under -
sof tw
lis ted</w>
is i
goo ds.</w>
fac t.</w>
encourage ment</w>
Strate gy,</w>
stake holders</w>
speak ,</w>
rec ital</w>
m outh</w>
loc ation</w>
estima tes</w>
emp ty</w>
divi de</w>
any where</w>
acqui red</w>
Ukrain ian</w>
E l
2 /
survi val</w>
public ly</w>
propo sed,</w>
pati ent</w>
alarm ing</w>
Liber ties,</w>
sin ce,</w>
pro ves</w>
prag matic</w>
p one</w>
ever -
dispar ities</w>
demonstr ating</w>
bac ks</w>
P lan
Fun ds,</w>
-B 4-0
reform ing</w>
nation al,</w>
knowledge -based</w>
han d.</w>
be au
an g
Y ou
F i
B et
200 1.</w>
' y
ti ous</w>
the tic</w>
reli ef</w>
post pone</w>
instru ment,</w>
h oping</w>
anim als.</w>
wide- ranging</w>
t wel
substan tive</w>
quanti ty</w>
p reg
mass ac
he d,</w>
fav oured</w>
defin ite</w>
Chris tm
symbo lic</w>
lan ds</w>
infra structures</w>
globalis ation.</w>
detri mental</w>
B lo
v ing.</w>
part y,</w>
impro ved.</w>
igno red</w>
D G</w>
Ad ministr
4 -
union ,</w>
f light</w>
coun cil
bank rup
v ing,</w>
resol ved.</w>
accep ted.</w>
euro s</w>
C res
trans mission</w>
sib le.</w>
par ame
fin ds</w>
emp h
constra ints</w>
Cub an</w>
trans fers</w>
p ays</w>
hosp it
expres ses</w>
Vienn a</w>
A zer
ti mi
respon ded</w>
le -
ever .</w>
deplo y
bas es</w>
arrange ment</w>
te en
regi me,</w>
ref using</w>
produc tivity</w>
certi fic
w .</w>
ity ;</w>
inspec tions</w>
D avi
shor tage</w>
mobil isation</w>
identi fying</w>
dra m
ari a</w>
Mu ga
taxpay ers</w>
require ments,</w>
min ds</w>
bas sad
ar ises</w>
Me di
Belar us.</w>
Arc tic</w>
shi f
rein forced</w>
buil d
sel ling</w>
se l</w>
remo te</w>
re imbur
fur ther
even ing,</w>
communic ate</w>
wit ness</w>
concen trated</w>
cof in</w>
bar bar
agenci es.</w>
advan ces</w>
W ar</w>
Ukrain e.</w>
S .</w>
Jun e.</w>
Gen der</w>
whol ly</w>
twen ty</w>
b y,</w>
S ak
Paragrap h</w>
val id
un ambigu
pre- accession</w>
discipl ine</w>
consul t</w>
E cofin</w>
Co de</w>
A T
taxpay ers'</w>
se as
resi gn
p ping</w>
miti g
hand led</w>
Mer co
Afgh an</w>
1 50</w>
tour ist</w>
specific ally,</w>
rec ti
publ ish</w>
on line</w>
moun tain</w>
indi genous</w>
gui de</w>
g are
emer ge</w>
ac cumul
Serbi an</w>
table s</w>
reconcil e</w>
notic ed</w>
high- level</w>
condem ning</w>
centur y,</w>
Yugosla v</w>
swi ft</w>
si des.</w>
pursu it</w>
domin ant</w>
agree ing</w>
Ques tions</w>
N ex
radi o</w>
confiden ce.</w>
boar d.</w>
ar rested</w>
Sou thern</w>
In no
Chechny a</w>
decis i
conten t.</w>
Program me,</w>
Per son
rever se</w>
persecu tion</w>
peac e
ne ,</w>
f r
enti re
In te
Alban ian</w>
sen ior</w>
quar ter</w>
k new</w>
in spi
dimen sion.</w>
acqu ire</w>
ic h</w>
govern ance.</w>
ge ared</w>
econom ies.</w>
awa iting</w>
sour ces.</w>
mu tually</w>
know ing</w>
globalis ation,</w>
un it</w>
techni qu
rejec ted.</w>
mobil ise</w>
bl u
appropri ate,</w>
F ac
Cypr us,</w>
w ind</w>
tle ,</w>
separ ation</w>
ra ther,</w>
ity '</w>
ir responsible</w>
indispens able</w>
duce d,</w>
compens ate</w>
N u
Colom bi
quick ly,</w>
minor ities.</w>
in cur
har ass
essen ce</w>
b reaches</w>
Sud an</w>
Lo o
He re,</w>
Co ton
t s;</w>
responsib le,</w>
parlia ments.</w>
meet ing.</w>
di an</w>
bu s</w>
T e
wa ve</w>
ho sti
de gra
sai d:</w>
quanti ties</w>
hel p.</w>
diseas e.</w>
ac commo
To ge
Mu ch</w>
in cin
comit ology</w>
ahead .</w>
EC B
Ch er
war ds.</w>
su n
stabil isation</w>
reve aled</w>
politic s.</w>
dead lines</w>
as ing</w>
P H
Balk ans.</w>
19 5
/E EC</w>
unil ater
soci alist</w>
o we</w>
de commission
ce re
al leged</w>
W he
Con federal</w>
spea ks</w>
restric ting</w>
propo sed.</w>
pillar s</w>
g ame</w>
dis tan
b aij
S IS</w>
Mediterrane an.</w>
Me an
Ho we
Cu stom
Azer baij
say s,</w>
sa me.</w>
in land</w>
gro wn</w>
Howe ver</w>
responsib le.</w>
pers is
pe d,</w>
he c
beli ef
V ene
GMO s</w>
v is</w>
ste el</w>
offici ally</w>
ing ly.</w>
dela y.</w>
complex ity</w>
advoc ates</w>
ridic ul
re ha
pat en
nee ds,</w>
exc ise</w>
challen ge.</w>
ce ;</w>
suspen d</w>
stop ped</w>
r .</w>
li ve
experi ence,</w>
P res
Accor d
wil l.</w>
vit ally</w>
tow ns</w>
suffici ent.</w>
st range</w>
expenditu re,</w>
benefici aries</w>
al leg
P act,</w>
I P
199 7,</w>
internation ally</w>
frau d.</w>
comp are</w>
Ini ti
1 1
research ers</w>
philosoph y</w>
capit al,</w>
Sever al</w>
An n
the -
oper ation,</w>
mess ages</w>
interven tions</w>
hi ther
dan g
concern s,</w>
bu t
at tribu
3 6
wan ting</w>
wan t.</w>
th r
sudden ly</w>
ren d
pro ving</w>
mat ch</w>
instru ment.</w>
in put</w>
communic ation.</w>
ad dic
E G
) ;</w>
th row</w>
s h</w>
pic k</w>
n ings</w>
labe ll
ex act</w>
docu ments.</w>
adap ting</w>
Unfortun ately</w>
Th us</w>
S P
sign als</w>
ici p
G 20</w>
Free dom</w>
For tun
9 8
thes e,</w>
fi x
dif fering</w>
concep ts</w>
bro ken</w>
Balk ans,</w>
Al li
199 4</w>
purcha se</w>
atten ded</w>
Afghanist an,</w>
teleph one</w>
produc ers,</w>
immedi ately.</w>
10 ,</w>
voic es</w>
learn t</w>
Sak har
Govern ment
world wi
ti n</w>
fulfil led</w>
bri d
aspir ations</w>
an a,</w>
WTO .</w>
Thir d</w>
H ol
t ful</w>
sha re
imp lies</w>
hal t</w>
dictator ship</w>
N az
H au
relation ships</w>
es cape</w>
ener g
capit al.</w>
um s</w>
su res</w>
poin t:</w>
p p
inv itation</w>
embr y
passen g
name ly,</w>
in sur
foo d.</w>
N ations.</w>
Coton ou</w>
. ,</w>
state d,</w>
rec our
exces sively</w>
even ing.</w>
dis arma
detail .</w>
d d
cy cle</w>
autonom ous</w>
ag o
posi tively</w>
enter prise</w>
atmo sphere</w>
again st.</w>
J er
19 6
/9 8</w>
/0 0
z u
porno graph
bot tom</w>
Poli tical</w>
4 %</w>
l en
e ver,</w>
ble d</w>
author ity.</w>
acknow ledge
Mon day</w>
Iran .</w>
H ague</w>
Freedom s</w>
s cour
fisher y</w>
deteri oration</w>
c ke
ator ,</w>
Tur ning</w>
Treati es.</w>
mic ro
Sloven ia</w>
Program me.</w>
Indi a,</w>
sen ti
renew al</w>
pre de
prede cess
gen .</w>
floo ds</w>
every one.</w>
every one,</w>
agree .</w>
Cher no
victim s,</w>
up date</w>
em an
dre am
autom atic</w>
S un
Custom s</w>
z one.</w>
t- wing</w>
st ran
pr on
na vig
l end</w>
execu tion</w>
en ed</w>
dol lar
charac ter</w>
Syri a</w>
C at
uni versity</w>
tra de
thir ds</w>
smo king</w>
s ca
o t
lin ing</w>
lat er.</w>
i 's</w>
at tain
arbitr ary</w>
Strasbour g.</w>
influ en
frau d,</w>
fla g</w>
H ai
Christi ans</w>
over .</w>
foodstuff s</w>
cat tle</w>
Y outh</w>
2 5%</w>
sur plus</w>
sti g
sib le,</w>
leng thy</w>
laun ching</w>
for ces.</w>
flo or.</w>
derog ation</w>
Fun ds.</w>
Fri day</w>
Bus h</w>
Accord ingly,</w>
transl ation</w>
thes e.</w>
formul ated</w>
dis regard</w>
affor d
Septem ber.</w>
SME s.</w>
Po ssel
Europe ans.</w>
val .</w>
sen ,</w>
re ?</w>
mi xed</w>
f aster</w>
e t.</w>
6 0%</w>
199 8.</w>
targe ts.</w>
repe at,</w>
reha bil
provision s.</w>
mun icip
lob by
knowledge ,</w>
d are</w>
coura geous</w>
continu ally</w>
burden s</w>
Danu be</w>
á n
tenden cy</w>
foun ding</w>
Leban on</w>
Interne t,</w>
symbo l</w>
retur ning</w>
pre ference</w>
op pres
enthusias m</w>
consum er.</w>
Fran ce.</w>
un ch</w>
spee ch
off ences</w>
min es</w>
member s,</w>
exha us
all -
4 .
weak en</w>
tour ism,</w>
smo o
neces sit
l ack
implement ation,</w>
hom e.</w>
guide lines,</w>
fi ve
Sm all</w>
Ham as</w>
3 5
tle .</w>
so ft</w>
p ity</w>
p ac
mar ri
inci dent</w>
gi es.</w>
gare t
for ces,</w>
expec ting</w>
ci garet
Whe ther</w>
t ty</w>
month ,</w>
k o</w>
hi de</w>
du ty-
distor tions</w>
author ity,</w>
Belgi um,</w>
Belar us,</w>
vac c
medi a.</w>
marg in</w>
gr as
Switzer land</w>
7 %</w>
(A5-0 0
tr ack
supran ational</w>
ser ving</w>
remar k</w>
exce ed</w>
challeng es,</w>
Israel .</w>
199 6,</w>
mis s</w>
la u
justifi ed.</w>
guide lines.</w>
explo ited</w>
dossi er</w>
constitu ency</w>
bloc king</w>
big ger</w>
S M
Liby a</w>
tou ched</w>
t ation.</w>
rais ed.</w>
pro vo
plat form</w>
mer it</w>
lif ting</w>
l ad
hi li
Indi an</w>
Equ al</w>
Conserv ative</w>
te x</w>
sen ds</w>
road ,</w>
open s</w>
langu ages.</w>
en comp
ed ?</w>
disgr ac
co d</w>
bri dge</w>
German y.</w>
Europe -
wee ks.</w>
sha me</w>
rou tes</w>
ori ent
in capable</w>
frag ile</w>
fo ssi
destro ying</w>
ag h
Sakhar ov</w>
ru led</w>
ris k,</w>
ma il</w>
compu ter</w>
Ma y.</w>
y r
s ing,</w>
conclu sion.</w>
ad jour
Vene zu
Bas que</w>
B a
x ,</w>
stu di
frequ ent</w>
defen ded</w>
applau d</w>
accoun table</w>
Jo han
F oun
C ari
treat y.</w>
say :</w>
recour se</w>
itor s</w>
human ity</w>
do ing.</w>
ce :</w>
broadca sting</w>
L om
4 8</w>
wat ch</w>
vis ions</w>
tren ds</w>
ser van
scal e.</w>
commun ities.</w>
commit ments.</w>
vo cated</w>
un g</w>
require d,</w>
in for
channe ls</w>
c k,</w>
answ er,</w>
air line</w>
ad vocated</w>
tas k,</w>
sil ence</w>
seve rely</w>
milit ar
in e.</w>
e qual
che ap
b and</w>
199 9
tion s:</w>
subsi dy</w>
safe r</w>
p ho
im mun
ho c</w>
continu ity</w>
administr ation,</w>
J ar
Hung ary,</w>
A N</w>
0 )</w>
twel ve</w>
sensi tivity</w>
rest o
oper ation.</w>
li ves,</w>
i den
difficul ties,</w>
argu ed</w>
Fin land,</w>
A ir
oblig ations.</w>
inter f
interf ere</w>
devast ating</w>
UE N</w>
Tour ism,</w>
w ro
specul ation</w>
rev ise</w>
harmon ization</w>
convin cing</w>
S omal
Russi a's</w>
Au str
st at</w>
gui ding</w>
ge red</w>
da .</w>
countr y
ad mi
Justi ce,</w>
through .</w>
ro ll
push ing</w>
out line</w>
ment s:</w>
g lo
de emed</w>
ad here</w>
Liber al,</w>
ship y
punish ment</w>
intelli gence</w>
Nove mber.</w>
wor sen
though ts</w>
men tions</w>
member ship.</w>
in stability</w>
famili es.</w>
e co-
dras tic</w>
counter -
cooper ating</w>
au ster
O ver
ME P</w>
thi op
s ing.</w>
people ’s</w>
own ers</w>
metho do
mention ing</w>
indic ations</w>
in compatible</w>
energ y-
ab ly,</w>
Union ?</w>
E thiop
2020 .</w>
under lined</w>
tab ly,</w>
smoo th</w>
rescu e</w>
re mit</w>
posi tive.</w>
def end
consoli dated</w>
conduc ting</w>
com pris
analy ses</w>
situ ations.</w>
restric tion</w>
lic ence</w>
de ar</w>
capac ity.</w>
billi ons</w>
Europe an,</w>
understan d,</w>
u ri
recei ves</w>
balan ce,</w>
adjust ments</w>
Mad rid</w>
Bro k</w>
islan ds</w>
infrastructu re.</w>
il legally</w>
US A,</w>
Treati es,</w>
Sar ko
P act.</w>
Justi ce.</w>
H on
y a</w>
w est</w>
rein forcing</w>
partner ship.</w>
move ment,</w>
mil l
me t
kil ling</w>
WTO ,</w>
Sarko z
ten sion</w>
lin king</w>
Janu ary,</w>
Bulg arian</w>
As s
threaten s</w>
of ten,</w>
it ari
inten se</w>
inform ing</w>
immen se</w>
dis covered</w>
Beij ing</w>
self .</w>
ra ble</w>
mater nity</w>
l acks</w>
inclu sive</w>
establ ished.</w>
cor ri
char ged</w>
bo wsk
administr ation.</w>
ac cu
OEC D</w>
Afghanist an.</w>
7 0%</w>
valu e,</w>
trans lated</w>
ob struc
log is
harmon ising</w>
h .</w>
docu ments,</w>
cooper ative</w>
Wednes day</w>
Amsterdam ,</w>
op posing</w>
member s.</w>
langu age,</w>
eng agement</w>
de vis
coali tion</w>
an tly</w>
T ali
Mexic o</w>
no te,</w>
l as
em pl
e igh
can cer
tou gh
spectr um</w>
refuge es,</w>
ine quality</w>
develop ments.</w>
advis ory</w>
Verheu gen</w>
S har
wor se.</w>
vi c</w>
symb ol
st ory</w>
l li
il y,</w>
freedom s.</w>
dre am</w>
des tabil
demonstr ations</w>
awar ded</w>
Seven th</w>
O r</w>
v ague</w>
produc es</w>
pos s
por ters</w>
orien ted</w>
ex empl
discre pan
de z</w>
de ple
a :</w>
S peci
Ener gy,</w>
ve terinary</w>
ship s,</w>
new s
meaning ful</w>
li ved</w>
han dle</w>
distingu ish</w>
ce ly</w>
ab le
Member s'</w>
Go then
C ,</w>
ä n
shoul der</w>
rein force
pre rog
month .</w>
gu idance</w>
expen ses</w>
complain t</w>
artifici al</w>
alloc ate</w>
Natur a</w>
Contro l,</w>
si c</w>
hom es</w>
attach es</w>
S en
2 /200
under lines</w>
suf fer
refuge es.</w>
o s,</w>
no thing.</w>
manufacture r
la ,</w>
ke e
derog ations</w>
ag e
ta ke,</w>
suppl y.</w>
rele van
r ace</w>
ple d</w>
coun ting</w>
are ly</w>
accord ingly.</w>
Rel ations</w>
Herzegovin a</w>
F .</w>
B re
ty pical</w>
opportun ities,</w>
ma ke.</w>
jud ged</w>
ity ?</w>
insis ted</w>
highligh ting</w>
gu ard</w>
diseas e,</w>
di min
deli very</w>
co sme
back .</w>
Zimbab we
Every thing</w>
report 's</w>
ou lo
in vo
auth or</w>
as sumed</w>
al ter</w>
B or
wan t,</w>
ven ture</w>
re view
promp t</w>
o st
lob b
l us
l s,</w>
l er,</w>
ha u
e quality,</w>
deploy ment</w>
Su rely</w>
Montene gr
Mediterrane an,</w>
well- known</w>
ide a,</w>
diseas es,</w>
atten tion,</w>
anti bio
abandon ed</w>
Lu k
Er asm
toler ate</w>
re medi
quanti tative</w>
pollu tion.</w>
offic e.</w>
offic e,</w>
industri alised</w>
in spir
gap s</w>
bloc ked</w>
total itarian</w>
mo stly</w>
hom el
d ity</w>
comple mentary</w>
wel coming</w>
v or
sour ces,</w>
re viewed</w>
psycho logical</w>
priv atisation</w>
politic s,</w>
momentu m</w>
delay ed</w>
defini tions</w>
San ter</w>
Chancell or</w>
was te,</w>
w an</w>
treat ment,</w>
the o
stat us.</w>
refra in</w>
re placing</w>
per haps,</w>
S ev
Mar itime</w>
Glob al</w>
9 0%</w>
that ?</w>
so far</w>
pack aging</w>
fossi l</w>
choic e.</w>
attemp ted</w>
pro active</w>
happen ed.</w>
a way.</w>
Palestin i
P aci
Cypr us.</w>
C .</w>
wor ker</w>
ten sions</w>
re ception</w>
pat ents</w>
op t</w>
min e</w>
infringe ments</w>
fra ud
formul ate</w>
fo ods</w>
exis ted</w>
commer ce</w>
ch ose</w>
Communic ation</w>
weak nesses</w>
ton igh
set tle</w>
ra tes,</w>
in ability</w>
equip ped</w>
c ould,</w>
ato m</w>
V I
C re
treat y,</w>
proble matic</w>
n ur
cre ati
attr act</w>
Wall strö
Scot land</w>
Fron tex</w>
E N
3 /200
trace ability</w>
ti ,</w>
techn ically</w>
re m
in comes</w>
fa ult</w>
disman tling</w>
dis proportionate</w>
c ross</w>
b its</w>
T S</w>
S O
Euro stat</w>
soon er</w>
satisfactor y.</w>
even ts.</w>
Cari bbe
6 00</w>
ti a</w>
s par
produc ers.</w>
plen ty</w>
mu ch-
max im
follow ing:</w>
effec tiven
9 5
'y es'</w>
wh ite</w>
rest oring</w>
pain ful</w>
orien tation</w>
n is
mis leading</w>
m es</w>
bu ying</w>
belong s</w>
at ro
alis tic</w>
Thurs day,</w>
vehic les.</w>
seri ousness</w>
program me
inev itable</w>
g ar
disap pointment</w>
correc t.</w>
Pri ze</w>
HI V
stake hol
s wee
om et
measu re,</w>
introduc es</w>
gi es,</w>
foo t</w>
drug s.</w>
direc tives.</w>
committe es,</w>
avoi ded</w>
a i</w>
prece dent</w>
postpon ed</w>
parliamentari ans</w>
long ,</w>
kil omet
hor ri
capit alist</w>
Th ree</w>
State s’</w>
Con gress</w>
An gol
vers al</w>
ver s,</w>
t s?</w>
success ful.</w>
ru b
preferen tial</w>
man n</w>
li ft</w>
fruit ful</w>
direc tive
conclu sions.</w>
Sol ana</w>
Cyprio t</w>
6 %</w>
welcom ed.</w>
war s</w>
se ats</w>
f e</w>
confron ted</w>
bio fuels</w>
ast on
aqu ac
yester day's</w>
ta pe</w>
stre am</w>
recommen ds</w>
migr atory</w>
ho w,</w>
ag ger
Johan nes
199 2</w>
vision ,</w>
us al
open ,</w>
nar row</w>
ment s?</w>
kin d,</w>
glob alised</w>
emphas ising</w>
Jer usal
AR E</w>
v ar
so on.</w>
ra ,</w>
preven ts</w>
live li
gi en
forese en</w>
flee ts</w>
exerc ising</w>
es t,</w>
do ors</w>
confin ed</w>
al '</w>
Can c
1 1,</w>
produc t.</w>
loc k</w>
ide a.</w>
contribu tion.</w>
civili ans</w>
accompan ying</w>
Sci enti
y es</w>
prof itable</w>
par tially</w>
jeopardis e</w>
don ors</w>
democr atic,</w>
La w</w>
K al
war n</w>
small -scale</w>
ris ks.</w>
po or
func tional</w>
enti tle
circul ation</w>
Schul z</w>
Lae ken</w>
Gree ce.</w>
9 %</w>
z em
un its</w>
un employe
pro voc
pre condition</w>
posi tive,</w>
cl aiming</w>
S ri</w>
S an</w>
Presiden cy's</w>
Mon itor
M il
199 7.</w>
un ite</w>
reques ting</w>
pron oun
prof ile</w>
long .</w>
Sloven ian</w>
Fin ance</w>
D im
C 6-0
Bulgari a,</w>
understand able</w>
ti an</w>
sub mitting</w>
practic es,</w>
lic ences</w>
go als.</w>
draw s</w>
dimen sion,</w>
ab stain</w>
z -
ye d.</w>
teach ing</w>
star t,</w>
pre me</w>
pan -European</w>
o live</w>
mo des</w>
assis ting</w>
E F
Ash ton,</w>
199 0
ö r
wish ,</w>
st ad
p s.</w>
genoci de</w>
exemp tions</w>
ex agger
copy right</w>
compl ying</w>
cl aim
ce il
apolog ise</w>
plan s.</w>
invol ve
fronti er</w>
ev olution</w>
d ying</w>
aris en</w>
Jul y,</w>
199 5,</w>
ship s.</w>
ru le,</w>
reser ved</w>
effec ts.</w>
earli er.</w>
depl ore</w>
co financing</w>
ce ase</w>
can cell
cam ps</w>
Pro f
with drawn</w>
thro wn</w>
swif tly</w>
sanc tions.</w>
news paper</w>
famili es,</w>
en coun
assemb ly</w>
Jar zem
4 /
the me</w>
resor t</w>
reser v
re :</w>
p age</w>
o log
enta ils</w>
domin ated</w>
disast ers.</w>
author s</w>
ari es,</w>
Monitor ing</w>
Cul ture,</w>
6 .
particip ated</w>
cul tur
confi denti
MEP s,</w>
w al
seri ously,</w>
s mar
prejudic e</w>
legi tima
gir ls</w>
every thing,</w>
emer gence</w>
d ness</w>
Jarzem bowsk
9 .
whe ther,</w>
supp lied</w>
ple s</w>
metho ds.</w>
intoler able</w>
institu tion.</w>
inspi red</w>
imag in
V el
wro te</w>
vote :</w>
ur an
straigh t
pe tro
oper ates</w>
n ical</w>
isol ation</w>
imperi alist</w>
consump tion.</w>
commer ci
altern ati
abi de</w>
Strasbour g,</w>
Asi a,</w>
teach ers</w>
solu tions,</w>
quali fic
in ser
ic s,</w>
distor tion</w>
R ü
G ulf</w>
Cour t.</w>
Appro val</w>
war ds,</w>
protec ted.</w>
formul a</w>
compon ents</w>
Ver y</w>
Cor bet
volun te
secon d-
re b
ne o-
law s,</w>
l -
g ases</w>
deliver ing</w>
de fec
supple ment</w>
poll ut
en rich
du m</w>
contr actual</w>
acces sion,</w>
a be
9 0
3 /
s lo
qual itative</w>
phr ase</w>
hy gien
hel p,</w>
certi fication</w>
ath er,</w>
are as
adv ise</w>
Par is</w>
M it
Luk as
ter ror</w>
push ed</w>
measu re.</w>
ha ven
fish ing,</w>
feel ings</w>
diseas es.</w>
democr ati
de vic
bene fi
Ital y.</w>
Environ mental</w>
D ru
Col lege</w>
thr ust</w>
t one</w>
rev olution</w>
residen ts</w>
reason ably</w>
ra te.</w>
move ment.</w>
fir st-
famil y,</w>
eli gi
effor t,</w>
conten t,</w>
conferen ce.</w>
compati bility</w>
bil l</w>
as h</w>
Mean while,</w>
MED A</w>
financi ally</w>
ch el
be ings.</w>
attitu des</w>
ad just</w>
A le
surpris ing</w>
strengthen s</w>
sti ll,</w>
s plen
rest ,</w>
occa sion
mo dif
im balances</w>
freedom s,</w>
e quality.</w>
benef iting</w>
V itor
O omen
Montenegr o</w>
Mar ch.</w>
EC O
14 2)</w>
transport ation</w>
transparen t,</w>
ton ight</w>
speed y</w>
recru it
promis ing</w>
plen ary.</w>
on ed</w>
off .</w>
k en,</w>
journe y</w>
in sofar</w>
fir st.</w>
er s’</w>
dra wn
clari fied</w>
W ar
Spain .</w>
Soci alists,</w>
Apr il,</w>
worth while</w>
re mun
monopoli es</w>
ity :</w>
corrup tion,</w>
Ob viously</w>
Nu clear</w>
K az
H as</w>
Ban g
war rant</w>
te sti
senten ced</w>
recogni zed</w>
process ed</w>
pla yer</w>
ow ing</w>
optimis tic</w>
direc tives,</w>
dee pening</w>
3 2</w>
trou ble</w>
tomorrow 's</w>
today ’s</w>
suppor ters</w>
reques t.</w>
re consider</w>
peac eful
mer its</w>
incorpor ating</w>
g as
expo sure</w>
all s</w>
al ign
Viet nam
drug s,</w>
witness ing</w>
train ed</w>
repres sive</w>
pestici des</w>
per mits</w>
n ations.</w>
interpre t</w>
effec tively,</w>
autum n</w>
air ,</w>
S pr
Fisch ler</w>
Denmar k,</w>
1 2,</w>
speci alist</w>
re actions</w>
r at
manufac ture</w>
high .</w>
cell s</w>
Milose vic</w>
v ary</w>
tri g
s porting</w>
row ing</w>
re construc
purcha sing</w>
moder ate</w>
job ,</w>
it y-
fu r</w>
effor t.</w>
co .</w>
Toge ther</w>
N obo
Lom é</w>
5 )</w>
yester day.</w>
welcom e,</w>
she ep</w>
hear d,</w>
fish ing.</w>
fac e.</w>
excep tionally</w>
Nobo dy</w>
Cherno by
Bo ard</w>
Asi a.</w>
work force</w>
spre ading</w>
se t-
min ing</w>
char ter</w>
V ol
7 5</w>
(D A)</w>
strong est</w>
con fine</w>
capac ity,</w>
at s,</w>
addres sed.</w>
Un less</w>
Ru ij
An nu
tur ns</w>
te lls</w>
prece dence</w>
fe ll</w>
chan ces</w>
bi d</w>
ban ks,</w>
ad mitted</w>
P N
Ma ur
Gal ic
Europe ?</w>
Eur atom</w>
wi den
u ght</w>
succes sive</w>
motiv ated</w>
judg ments</w>
half -
experi ence.</w>
en forced</w>
d y.</w>
commun ist</w>
commit ment.</w>
cha ir</w>
Oomen -
work s.</w>
ut terly</w>
survi ve</w>
re duced.</w>
new ly</w>
inhe rent</w>
fra me</w>
e t,</w>
do w
an i</w>
scand al</w>
mis understand
ess or</w>
enta il</w>
- free</w>
over coming</w>
langu age.</w>
l ate.</w>
independen ce.</w>
fo ref
emplo y</w>
bloc k
Wal d
Pro duc
Feder ation</w>
Annu al</w>
xenopho bia</w>
mand ate.</w>
liber alization</w>
k id
go ver
fo li
d est</w>
bl at
Secon d,</w>
Oomen- Ruij
Lukas hen
20 ,</w>
w all</w>
tre ating</w>
stri king</w>
roll -
rac ist</w>
fac to</w>
expan ding</w>
doc tors</w>
disap point
de regulation</w>
bom b
Octo ber.</w>
Li ik
stipul ates</w>
situ ations,</w>
ree r</w>
redundan cies</w>
person s,</w>
n ai
langu ages,</w>
ish .</w>
in directly</w>
ha t
evalu ating</w>
dis advantage</w>
contamin ation</w>
ca reer</w>
Inno vation</w>
C C
z á
strong ,</w>
sti c</w>
say ing,</w>
profession als</w>
net work.</w>
form ity</w>
ex porting</w>
UK ,</w>
K ong</w>
EC ,</w>
under stands</w>
structu res.</w>
staf f,</w>
relev ance</w>
politici ans,</w>
objec tion</w>
neighbour s.</w>
ne o
envis age</w>
are s</w>
P hili
Liik an
Director ate-
C ath
vigil ant</w>
view s.</w>
urgen cy.</w>
ten .</w>
star t.</w>
resu me</w>
or s.</w>
institu tion,</w>
go al.</w>
econom ies,</w>
Fortun ately,</w>
suppl y,</w>
ren der</w>
fin ished</w>
fai rer</w>
explo it
commit ment,</w>
administr ations</w>
S oc
Conserv atives</w>
stree ts</w>
ster ing</w>
speak .</w>
redun dant</w>
plan s,</w>
p s,</w>
earthqua ke</w>
con cili
clo thing</w>
chea per</w>
catastro p
sp are</w>
ri c</w>
pipe line</w>
occup ational</w>
neg li
log ically</w>
jud ges</w>
il ity,</w>
decre ase</w>
Pap er,</w>
Minis ters,</w>
Canc ú
tax .</w>
re tro
pres s,</w>
out come.</w>
occa sion,</w>
mercur y</w>
m uni
let ters</w>
er red</w>
collec ted</w>
ation 's</w>
Eri ka</w>
E s
se g
ri o
restruc tur
peti tions</w>
it an
dee per</w>
ation s:</w>
anim als,</w>
agen ts</w>
Co hn
z a</w>
sta ke.</w>
sanc tions,</w>
port foli
lis t.</w>
ab un
E LD
sal aries</w>
responsib ilities,</w>
respon se,</w>
re ces
m ad
lo t
ing 's</w>
fea sible</w>
b one</w>
ari es.</w>
an no
aggres sive</w>
aca demic</w>
Tibe t</w>
F on
se e.</w>
rele as
ra tes.</w>
lus con
establ ished,</w>
dio x
cost ly</w>
Ber luscon
vi ability</w>
unaccep table,</w>
trans posed</w>
substan ces.</w>
less ly</w>
lab our,</w>
incredi bly</w>
in stead,</w>
dur ation</w>
cre dit
ob s
n ations,</w>
measu red</w>
ign oring</w>
financ ing.</w>
f ab
co ast</w>
avo ide
ac cess
Con go</w>
Cohn -B
Cohn-B end
success es</w>
stre t
softw are</w>
run -up</w>
pl ain</w>
law s.</w>
g amb
fore ign
deliber ate</w>
cur e</w>
conten ts</w>
commit ments,</w>
benefi ted</w>
beau ti
M ade
G 8</w>
EM U
plur alism</w>
p oul
maintain s</w>
iden tical</w>
detail ,</w>
consci ous</w>
confron t</w>
al liance</w>
abol ishing</w>
Man del
E P</w>
D ay</w>
An ti
modern ise</w>
l s.</w>
especi ally,</w>
entrepreneur s</w>
dign ity.</w>
con temp
REAC H</w>
M un
En large
Co st
8 %</w>
sup po
prohibi tion</w>
l ers</w>
il lic
happen s,</w>
ear n</w>
disast ers,</w>
consci ence</w>
accus ations</w>
No thing</w>
Jap anese</w>
199 0</w>
10 0%</w>
texti les</w>
s ),</w>
ex cess</w>
con ges
ab road</w>
Sou th-
9 /200
' The</w>
vehic les,</w>
replac ement</w>
neutr al</w>
concer ted</w>
bi ome
assu mption</w>
anticip ate</w>
NGO s,</w>
Europe- wide</w>
7 .
2 50</w>
urgen cy,</w>
r o</w>
l ar</w>
ed :</w>
du bi
cre ated.</w>
coordin ation,</w>
consul ting</w>
comple ting</w>
cauti ous</w>
T am
Kingdom .</w>
G ol
Ferre ro-
4 /200
ve to</w>
v able</w>
sc rap
sa me,</w>
pric e.</w>
increas e.</w>
foref ron
famil y.</w>
ener gies</w>
develo ped.</w>
c ards</w>
c a</w>
Yor k</w>
Th ess
Ta j
Maur itan
Ferrero- Wald
Febru ary,</w>
Erasm us</w>
Belar u
ti ge</w>
tariff s</w>
slaugh ter</w>
rob ust</w>
reaf firm
oppon ents</w>
memor y</w>
me al</w>
in c
f ly</w>
cruci al.</w>
au di
affec ted,</w>
U z
S tu
perpetr ators</w>
dis cover</w>
constitu tion,</w>
con dol
assess ment,</w>
Bur m
/ or</w>
um b
no t
ko v
fair ,</w>
debate s.</w>
cho col
Uz be
Sup port</w>
P an
CFS P</w>
vis -
t ant</w>
rest oration</w>
is ts,</w>
hither to</w>
guarante ed.</w>
foo ting</w>
e k</w>
Tibet an</w>
IM F</w>
th ing
suppli ers</w>
imp act.</w>
fl ying</w>
exerc ised</w>
ex pi
corner stone</w>
assur ances</w>
appli ed,</w>
announ ce</w>
199 6.</w>
know s,</w>
it ted</w>
flexi bility,</w>
e g
contradic tory</w>
consoli dating</w>
commun au
Person ally,</w>
N on-
Kore an</w>
10 0
substan ti
purpos es,</w>
protection ism</w>
diversi fication</w>
ant á
ac ts.</w>
Thess alon
S em
Gu antá
wor ry</w>
reven u
pollu tion,</w>
l ing.</w>
han dic
discus sed.</w>
dis agreement</w>
decommission ing</w>
contin ent
classi fication</w>
avo id
ad vic
Op port
Lat via</w>
Burm ese</w>
Austr al
Alger ia</w>
vo tes.</w>
tax ,</w>
know .</w>
hous es</w>
P u
G r
undermin es</w>
territor y,</w>
sugges ting</w>
six -
reques t,</w>
part-ses sion.</w>
and /or</w>
F O
Ex ecu
wor se,</w>
wor ry
un deni
tax ation,</w>
stu den
scep tic
penal ty.</w>
p ig
know n,</w>
industri es.</w>
every where</w>
emph atically</w>
deri ved</w>
contin ent,</w>
capac ities</w>
any body</w>
adver tis
achie ve.</w>
S ad
ELD R</w>
t ally</w>
suspec t</w>
step ping</w>
speak ers,</w>
offic ers</w>
intensi fy</w>
for ge
fac ts.</w>
epide m
direc tor
consequen ces,</w>
conferen ce,</w>
Thessalon ik
Opport un
K en
Ha ve</w>
Con sum
Agricul tural</w>
socie ties.</w>
senten ces</w>
se ize</w>
pur e</w>
provision s,</w>
peop les.</w>
oblig atory</w>
ma d</w>
instan ces</w>
free -
discrimin ate</w>
disast er,</w>
differen tly</w>
aspec t,</w>
Vi ol
State s?</w>
201 2</w>
num ber
mis tak
gg ing</w>
expres sion,</w>
cu los
ap point</w>
abor tion</w>
Cha ir</w>
A ppl
2007-201 3</w>
si g
shor e</w>
person ally,</w>
multi ple</w>
hom e
el ,</w>
contr acting</w>
communau ta
ass ass
Pro gress</w>
G on
201 3.</w>
- vis</w>
y s
weak ness</w>
vis its</w>
u pon
t ation,</w>
strengthen ed.</w>
pension ers</w>
in comprehensible</w>
else where,</w>
effici ent,</w>
cul tu
committe es.</w>
c ensure</w>
an t,</w>
Six th</w>
Par ticul
4 6
vis- à
ur ging</w>
under p
trans formation</w>
gr ante
democrac ies</w>
benef its.</w>
be red</w>
be ings,</w>
be fore
as se
T em
P r
201 1.</w>
speci fy</w>
repu tation</w>
ques t</w>
occup ying</w>
manif es
deg ree
beh in
ar te
S il
1 5%</w>
/96 )</w>
pla y.</w>
lo gn
immigr ants,</w>
gener ating</w>
exemp t</w>
decentr alised</w>
ad mitte
a ward</w>
Ye t,</w>
S imp
Bl air</w>
vege table</w>
transfer ring</w>
threat .</w>
theo re
p ion
fil m</w>
ei ther,</w>
cu sto
colon ial</w>
auster ity</w>
at a</w>
5 5</w>
' European</w>
then .</w>
sub ordin
sou th-
set tled</w>
scar cely</w>
partner ship,</w>
gover n</w>
cor respond</w>
S wis
Christm as</w>
splen did</w>
skil led</w>
scal e,</w>
prote sts</w>
explain ing</w>
ex tradition</w>
disab ilities</w>
correc tly,</w>
compe ting</w>
bun al</w>
appropri ately</w>
Tim or</w>
Regul ation,</w>
Bo w
Be h
201 3</w>
z ones</w>
ye t.</w>
to ys</w>
refer r
reco ver</w>
fun d,</w>
figu res,</w>
es e,</w>
d ance</w>
ator ies</w>
Wha tever</w>
Par t</w>
M at
Agen cy,</w>
Ac cession</w>
z one,</w>
weap on</w>
vol ati
vis-à -vis</w>
un likely</w>
sm all,</w>
scre ening</w>
s ',</w>
purpo se,</w>
pressu res</w>
law ful</w>
in k</w>
i ron
discipl inary</w>
d 's</w>
ber culos
Washing ton</w>
W o
Ta king</w>
T V</w>
Gu ar
3 4</w>
viol ated</w>
traffic king,</w>
see k
scandal ous</w>
pul l</w>
exempl ary</w>
distribu ted.</w>
committe e's</w>
colleagu es.</w>
cas e-
boo ks</w>
assess ment.</w>
allow ances</w>
acknowled ges</w>
Bar ón</w>
y iel
protection ist</w>
prote in</w>
percei ved</w>
par aly
multination als</w>
moun tain
is m
expec ts</w>
clo sel
allevi ate</w>
Kaz ak
4 8
har sh</w>
cros sing</w>
ch ron
assum ing</w>
a er
T ele
I II</w>
- of-
women ’s</w>
vision .</w>
mur dered</w>
mi x</w>
jun c
in ter</w>
cost .</w>
co ve
Sec tion</w>
J acqu
For um</w>
B SE
3 7</w>
tal ity</w>
stimul ating</w>
per missi
guar dian</w>
control s.</w>
continu e,</w>
consum ers'</w>
commun ities,</w>
cl oning</w>
b arely</w>
ass ent</w>
Scienti fic</w>
Caribbe an</w>
work able</w>
structu res,</w>
staff .</w>
propagan da</w>
pro du
posi tions.</w>
pay ments.</w>
parad ox
lo opho
gen ic</w>
counterfe iting</w>
constitu ents</w>
carri es</w>
Portug al.</w>
Kinno ck</w>
In stru
D al
CO M(
(B 5-0
( 200
year -
t )</w>
suspec ted</w>
mobil ity.</w>
intelli gen
exten t.</w>
enti ties</w>
consequ ently,</w>
budge ts.</w>
bre ast</w>
Mc C
L ul
Inter institutional</w>
G a
F )</w>
virtu e</w>
stipul ated</w>
spo kes
mand ate,</w>
lo ve</w>
ide as,</w>
hi dden</w>
exclu sion.</w>
deman d,</w>
Pol and.</w>
subsidi es,</w>
real ities</w>
inspec tors</w>
im balance</w>
hom e,</w>
brea ks</w>
anticip ated</w>
am a</w>
ab duc
a ren
U C
T or
Su stain
three -
st en
se a.</w>
ro les</w>
res ist</w>
reas on.</w>
prec arious</w>
ik a</w>
hap ing</w>
group 's</w>
fav our,</w>
ed ;</w>
competen ce.</w>
af firm
Tai wan
R wan
Presiden cy
wat ers.</w>
wai ver</w>
surve y</w>
prosper ity.</w>
produc t,</w>
other wise,</w>
connec tions</w>
cle s</w>
challeng ing</w>
Scot tish</w>
De leg
DE M</w>
A id</w>
( the</w>
warm ing</w>
summ ary</w>
stri ving</w>
sitt ing:</w>
ro om
out break</w>
on :</w>
e ye
d read
carri ers</w>
afterno on.</w>
Tai wan</w>
Qu arte
smo oth
secu ri
pl ain
on y</w>
l ou
in cl
ex pul
es h</w>
duty- free</w>
ator .</w>
afford able</w>
U l
S au
Prof essor</w>
un certain</w>
step ped</w>
sec rec
r ,</w>
neighbour s,</w>
gra v
for getting</w>
ech o</w>
corrup tion.</w>
bo y
bo ld</w>
anxi ous</w>
Jacqu es</w>
F ar</w>
Chil d
7 00</w>
val i
secu red</w>
prosecu tion</w>
prevail ing</w>
lawy ers</w>
judici ary</w>
homo sexu
hear ings</w>
forecast s</w>
commit ting</w>
Medi a</w>
4 )</w>
structu re,</w>
preferen ces</w>
pl ing</w>
increas ed.</w>
deci des</w>
chap ters</w>
To day's</w>
Mon ti</w>
Mar tin
IN D
ECH O</w>
199 3</w>
s le
review ing</w>
net work,</w>
mobil ity,</w>
interoper ability</w>
hour s,</w>
fuel s.</w>
es t.</w>
d y,</w>
cr y
confirm ation</w>
bat ter
acu te</w>
accep ted,</w>
S tal
Go e
-to- day</w>
st yle</w>
ow ned</w>
off ence</w>
man .</w>
liber ty</w>
lab or
foun d.</w>
eradic ate</w>
em i
differen t,</w>
constitu tion.</w>
boar d,</w>
be ing.</w>
ation )</w>
appreci ated</w>
ad d,</w>
Caucasu s</w>
Alli ance,</w>
1 5,</w>
targe ts,</w>
ra ft</w>
org ans</w>
op position,</w>
ingredi ents</w>
im position</w>
gain s</w>
di es
chec ked</w>
al lies</w>
ak es</w>
Fur ther</w>
Enlarge ment</w>
8 00</w>
t- and-
su r</w>
sol ven
provision al</w>
launder ing</w>
discus sions.</w>
dependen cy</w>
day -to-day</w>
TE N
Spr ing</w>
Jap an,</w>
there d</w>
reta il</w>
re patri
privi lege</w>
oper ations.</w>
occa sions.</w>
oc curren
he l</w>
conver sion</w>
clari fying</w>
centr alised</w>
advoc ating</w>
ad mission</w>
Me a
Georgi a,</w>
1 3,</w>
wea ker</w>
viol ate</w>
ultima tely,</w>
thin king,</w>
stat us,</w>
limit ations</w>
fun d.</w>
er ly</w>
den ying</w>
contra ven
Mosco w</w>
Mar tin</w>
M ari
weap ons.</w>
time -
rejec ts</w>
n ice</w>
independen ce,</w>
gener ations.</w>
gener ally,</w>
e m</w>
depart ments</w>
deliber ations</w>
R efu
M A
IL O</w>
Government 's</w>
8 0
some where</w>
scenari o</w>
rais ed,</w>
prosper ous</w>
mo tion.</w>
f at</w>
cour ses</w>
T A
Refu ge
Mc Car
/9 7</w>
stoc ks.</w>
sad ly</w>
op ted</w>
mil est
endeav ours</w>
coun tless</w>
co ins</w>
bio technology</w>
acceler ate</w>
Cle arly</w>
well- being</w>
ris en</w>
reform ed</w>
reac hed.</w>
pro minent</w>
in security</w>
hypocris y</w>
for th</w>
dic ta
banan as</w>
b la
Sy ste
N ep
Mal m
Com p
trans late</w>
ti ght</w>
sur pl
pre tty</w>
pleas ant</w>
org an</w>
fas c
elector ate</w>
dist ant</w>
cu r</w>
ber g</w>
afterno on,</w>
W H
Le g
Go od</w>
tion '</w>
tem per
su stain</w>
st am
priv ati
k ar
forefron t</w>
control s,</w>
conclu sions,</w>
c lim
appro ved,</w>
analy sing</w>
P ack
Flo ren
t t
ren ation
referendu m.</w>
prev ail</w>
part- time</w>
mod ul
manoeuv re</w>
hour s.</w>
dec ou
ar tic
ad j
Su per
Bu reau
ta ught</w>
stres sing</w>
seri ous,</w>
ri es,</w>
mainstream ing</w>
know n.</w>
fing er
fa ul
extra ordin
co di
an 's</w>
N I
A vi
" .</w>
substitu te</w>
secon dly</w>
re unification</w>
depar ture</w>
cultiv ation</w>
TAC IS</w>
tru th,</w>
su ited</w>
rhetor ic</w>
repe ating</w>
pre mature</w>
par amount</w>
ow ner
migr ation,</w>
hin der</w>
free ,</w>
develop ments,</w>
custom ers</w>
com ments,</w>
ce '</w>
an nex
ad ds</w>
W ol
Merco sur</w>
tour ism.</w>
ti ed</w>
suspic ion</w>
rigi d</w>
n y</w>
ide as.</w>
func tion
du s</w>
descri ption</w>
cre ated,</w>
closel y.</w>
Sol ana,</w>
Roman ia.</w>
Other wise</w>
IND /
G ros
Bolkeste in</w>
sor ts</w>
repl y,</w>
recruit ment</w>
over view</w>
minu te
li able</w>
lag ging</w>
geo political</w>
di d,</w>
co existence</w>
chan nel</w>
b ic</w>
aus pic
US ,</w>
Lithuan ia,</w>
Jo hn</w>
IND/ DEM</w>
E ar
C ategor
uc tu
sp he
pri de</w>
le z</w>
im possible.</w>
fl uctu
ceas e
Tali ban</w>
Educ ation,</w>
D r</w>
transparen t.</w>
tax es,</w>
read iness</w>
process es.</w>
mak ing.</w>
mak ers</w>
gh t,</w>
co des</w>
subsidi es.</w>
rep air</w>
poor ly</w>
parame ters</w>
insis ting</w>
indic ating</w>
eligi bility</w>
Wh y?</w>
Ombudsman 's</w>
Husse in</w>
Gon zá
vigor ously</w>
tun e</w>
simple r</w>
selec ted</w>
reloc ation</w>
inf lic
Slovak ia,</w>
Regi ons</w>
P as
N apo
Jo s
Develop ment.</w>
Commun ities</w>
3 6</w>
te :</w>
embar r
countr y’s</w>
con fir
You th,</w>
Un der
Th en,</w>
Rap porte
Chernoby l</w>
z he
ul l</w>
reiter ated</w>
pollu ter</w>
pe l</w>
it ary</w>
illu strates</w>
cas h</w>
bi om
Swis s</w>
Regul ation.</w>
R ound</w>
Protec tion,</w>
O s
Marke t,</w>
G AT
un satisfactory</w>
ship building</w>
protec ts</w>
pressu re.</w>
natur ally,</w>
medic ine</w>
leg es</w>
incorpor ation</w>
discus sions,</w>
consensu s.</w>
concentr ating</w>
collec t</w>
co ld</w>
at s.</w>
am ing</w>
a es
ru le.</w>
reaf firm</w>
mo ther
industri es,</w>
h em
deman d.</w>
contribu tions.</w>
clima te,</w>
cau tion</w>
abol ished</w>
P )</w>
Luxembour g,</w>
G M</w>
voic ed</w>
undermin ed</w>
star ts</w>
sil ent</w>
sh ut</w>
rese t
potenti al.</w>
pillar ,</w>
perpe trated</w>
incredi ble</w>
exclu ding</w>
b low</w>
b ans</w>
UN ,</w>
PH ARE</w>
Execu tive</w>
them atic</w>
roun d.</w>
preven tion.</w>
ic h
fer ti
e ag
den omin
countri es?</w>
conf used</w>
competi tive.</w>
au gh
any thing,</w>
D on
Ban glad
trans ported</w>
remin ds</w>
rehabil itation</w>
proper ly,</w>
newspap ers</w>
know -
it ;</w>
i e
deplo yed</w>
al ert</w>
Sev il
Pro secu
Paci fic</w>
N iel
Gothen burg</w>
An d
up -to-
traffic king.</w>
sit ting.</w>
shor ta
representati ves,</w>
minim al</w>
interven tion,</w>
identi ty.</w>
disap pointing</w>
dis play</w>
dec ade</w>
boo sting</w>
Se a.</w>
Res ear
McC ree
ther ing</w>
t ine</w>
sh ed</w>
revis ing</w>
pun ished</w>
pillar .</w>
inciden tally,</w>
employe es.</w>
deman ds.</w>
citizen .</w>
avi an</w>
ad minis
V e
Represent ative,</w>
Kazak h
Az o
them ?</w>
ref uses</w>
prohi bit</w>
pay ments,</w>
pap ers</w>
no t?</w>
ind ul
encoun tered</w>
cred its</w>
Niger ia</w>
Fisher ies,</w>
5 /200
3 3</w>
wat ching</w>
vis iting</w>
v a</w>
table d.</w>
radic ally</w>
perman ently</w>
navig ation</w>
marg ins</w>
issi on</w>
intern ally</w>
Industr y</w>
Eston ia</w>
En g
Directorate- General</w>
Auditor s,</w>
2000 -
vacc ination</w>
s haping</w>
rev it
on 's</w>
impro ves</w>
happen ing.</w>
distingu ished</w>
cro p</w>
cre ation.</w>
back ground,</w>
accord ingly</w>
a x
M O</w>
Bus iness</w>
Al zhe
7 0
ta r</w>
pre mis
minor s</w>
ici de</w>
elec tric</w>
design ated</w>
conferen ces</w>
cal m</w>
appro ved.</w>
adop ts</w>
W ater</w>
M en
Israel is</w>
wil d</w>
vo ting.</w>
vis ory</w>
us er</w>
st ation</w>
speci alised</w>
remar ks.</w>
quo ted</w>
multil ater
interven tion.</w>
independen tly</w>
in come.</w>
exten ds</w>
demon strate
alco hol
Malm strö
J ord
Con si
Com b
Ar gen
suppo se
re ;</w>
like .</w>
hope .</w>
direc tly,</w>
denoun ce</w>
d )</w>
coordin ation.</w>
approach ing</w>
T error
Minis try</w>
G )</w>
Bur un
Again ,</w>
valid ity</w>
slow ly</w>
sign ature</w>
recommend ations.</w>
rec it
plan et</w>
now ad
mechanis m.</w>
liberalis ation,</w>
inclu ded.</w>
inadequ ate.</w>
dubi ous</w>
confiden ce,</w>
compan i
begin ning,</w>
arri val</w>
Di men
B r
A ri
up gra
swit ch</w>
recor ds</w>
re tention</w>
pas sive</w>
o tive</w>
exper ts,</w>
di vor
de duc
back ,</w>
alleg ations</w>
alis ts.</w>
wor d,</w>
weak ening</w>
ven ess</w>
tax ation.</w>
peace keeping</w>
nes ty</w>
l ate
inclu ded,</w>
immigr ants.</w>
illustr ate</w>
forese eable</w>
embar k</w>
comm em
bl ue</w>
ath ers</w>
asyl um,</w>
and 's</w>
Vice- President,</w>
ur ges</w>
the ory</w>
techniqu es</w>
st s,</w>
pressu re,</w>
mechanis m,</w>
indic ative</w>
har der</w>
eth ics</w>
an der</w>
Govern ments</w>
Anti -
ASE AN</w>
re rs</w>
pu ty</w>
possib le
migr ant</w>
five -year</w>
financ ing,</w>
dissemin ation</w>
defin es</w>
defici encies</w>
debate s,</w>
condol ences</w>
citizen s’</w>
chec king</w>
benef it.</w>
ac ts,</w>
s son</w>
rec ur
question able</w>
ou trage
kee ps</w>
k ill</w>
impres sive</w>
civil isation</w>
barri er</w>
advis ed</w>
Pro cess</w>
Muga be</w>
Indonesi a</w>
I A
Cur ren
Col le
C e
Ale x
4 4</w>
under pin
tem pl
sum mer
stabil ise</w>
st e</w>
school s,</w>
renew ab
over look</w>
out set,</w>
m us
li br
intro duced.</w>
il y.</w>
equ itable</w>
eng aging</w>
dimen sions</w>
dign ity,</w>
change d,</w>
celebr ate</w>
activis ts</w>
Perspec tive</w>
PN R</w>
E quality</w>
Alzhe im
supporte d.</w>
sal ary</w>
read mission</w>
re cession</w>
popul ated</w>
mo thers</w>
metho ds,</w>
hi er
eradic ation</w>
diplom acy</w>
cover age</w>
consump tion,</w>
ch e</w>
AC P
8 /
4 3</w>
14 ,</w>
scru pul
roo ted</w>
ma r</w>
like wise</w>
kid n
ic s.</w>
failu re.</w>
dam age.</w>
be en,</w>
(S L)</w>
work ing.</w>
thir ty</w>
spec tac
sm en</w>
shame ful</w>
protec tive</w>
prohibi ted</w>
itari an
hier arch
effici ent.</w>
credi bility.</w>
bankrup t
Wor k</w>
Di aman
Ch ur
A h
wo od</w>
ses sion.</w>
reve als</w>
peop les,</w>
organis ation,</w>
noti fication</w>
mechanis ms.</w>
iz ing</w>
it :</w>
hum ili
di visions</w>
decad es.</w>
contribu tion,</w>
citizen ,</w>
T ,</w>
P atten
Organ isation.</w>
Minis ters.</w>
visi bility</w>
un clear</w>
suppose dly</w>
ri es.</w>
pres sed</w>
per ception</w>
pati ent
modi fication</w>
lis t,</w>
lim itation</w>
legisl ate</w>
g ged</w>
en ters</w>
capit a</w>
ahead ,</w>
T ob
Consum ers</w>
Categor y</w>
B yr
ter -
respec ted,</w>
pric ing</w>
ou ,</w>
o s.</w>
lif est
flag s</w>
dam aged</w>
cons ist</w>
be have</w>
approach ed</w>
ab sten
Appl ause</w>
.. .
table d,</w>
suppor tive</w>
se a,</w>
referendu ms</w>
reduc es</w>
radi ation</w>
mechanis ms,</w>
fl our
deleg ation,</w>
L IF
Janu ary.</w>
Al so</w>
- out</w>
ves sel</w>
the or
stu died</w>
strate g
sto o
six th</w>
roll- call</w>
residen t</w>
non- EU</w>
n om
ffici al</w>
embarr ass
electr ical</w>
deb ts</w>
contro vers
co- operation</w>
c ab
Wh ich</w>
Se a,</w>
P ra
In cre
sul ph
resolu tions.</w>
reflec ting</w>
pun ish</w>
pers istent</w>
o il,</w>
me t,</w>
it i</w>
influ enced</w>
hec ta
conver gen
challen ge,</w>
c tioning</w>
author itarian</w>
ation s?</w>
alloc ating</w>
] .</w>
L ar
Fran k
F I
xenopho bi
ver y,</w>
underes timate</w>
substan ce.</w>
standardis ation</w>
s light</w>
o ce
never theless,</w>
is ations</w>
experi en
conflic ts.</w>
compl ain</w>
benef its,</w>
as set</w>
ab out
a king</w>
V is
Organ ization</w>
Jos é</w>
Cour t,</w>
Cer tain</w>
3 8</w>
201 0
( G
underes tima
tor ,</w>
some body</w>
scour ge</w>
s a</w>
moun t</w>
frank ly</w>
fav oura
es te
earli est</w>
e at</w>
datab ase</w>
consider ation,</w>
comple ment
A ir</w>
198 0
vigor ous</w>
resolu tions,</w>
pe d
p h</w>
organis ational</w>
medium- term</w>
m ale</w>
fav ours</w>
b ent</w>
atmo sp
Val en
B our
work s,</w>
tur n
teen th</w>
tain ing</w>
structu re.</w>
some how</w>
minim ise</w>
lo ad</w>
innov ations</w>
fo stering</w>
es timate</w>
ec es</w>
d issi
contamin ated</w>
conside red.</w>
char ging</w>
an t.</w>
am bassad
af fair</w>
ad ult</w>
Uzbe k
Organ isation,</w>
Mer ke
HIV /
Frattin i</w>
E f
un equal</w>
pollu ting</w>
obser ver</w>
macro- economic</w>
fro m,</w>
expect ations.</w>
dev ise</w>
calcul ated</w>
O ost
N one</w>
E lec
D A
Belaru sian</w>
Amsterdam .</w>
6 /
tu berculos
su it
simpl y,</w>
off ,</w>
ni fic
long- standing</w>
in su
empha siz
consensu s,</w>
care fully.</w>
asser t</w>
P over
Oost lan
Britain ,</w>
) )</w>
up dated</w>
unambigu ous</w>
ru s</w>
reac tors</w>
knowledge .</w>
inclu ding,</w>
in com
ideo logy</w>
employe es,</w>
T er
Pap er.</w>
worldwi de.</w>
ta .</w>
sur face</w>
pru den
lob by</w>
lead ers,</w>
g all
compan y,</w>
cat ches</w>
cap abilities</w>
Man agement</w>
Loo king</w>
L e</w>
Apr il.</w>
- ,</w>
ver b
pl u
maintain ed.</w>
lo gies</w>
investig ating</w>
hat red</w>
happen ed,</w>
a fore
Jul y.</w>
ver dic
to s</w>
ris ks,</w>
po cke
improve ment.</w>
fisher ies,</w>
f ed</w>
dol lar</w>
collec ting</w>
co very</w>
ci ent</w>
air space</w>
Leg isl
EU- wide</w>
2020 ,</w>
1 20</w>
(B G)</w>
um p</w>
recipro cal</w>
oblig ations,</w>
good will</w>
desper ate</w>
counterfe it</w>
communic ations,</w>
appe als</w>
air .</w>
afore mentioned</w>
adhe red</w>
Swobo da</w>
People '</w>
K la
Hung ari
z o
wor ries</w>
tradi tionally</w>
statu tory</w>
rig our</w>
install ations</w>
explo iting</w>
eviden tly</w>
cy cl
cre ation,</w>
commissi on</w>
ch ic
cat aly
can .</w>
beauti ful</w>
ap point
an dum</w>
Wor kers</w>
strugg ling</w>
shoc ked</w>
rep lied</w>
hor mon
further more</w>
el abor
cha i
boun dar
balan cing</w>
Sau di</w>
Lef t,</w>
Au gu
wron g,</w>
retain ed</w>
pi eces</w>
penal ty,</w>
op tion.</w>
non- discrimination</w>
man y,</w>
il ity.</w>
he aded</w>
grass roots</w>
c row
c k.</w>
c ite</w>
begin s</w>
accor ded</w>
SM E</w>
R ed</w>
Le on
Colom bia</w>
- EU</w>
shar p</w>
reac ted</w>
ob viously,</w>
medicin es.</w>
me :</w>
forwar d-
disadvanta ges</w>
dis gu
bureaucr acy.</w>
bo ats</w>
again st,</w>
acqu isi
Pakist an,</w>
Foun dation</w>
vac u
uran ium</w>
te d?</w>
sk i</w>
reve al</w>
over seas</w>
minu tes.</w>
lab our.</w>
judge ment</w>
in timi
disarma ment</w>
cin o
Pe ter
(COM( 200
uti n</w>
promp tly</w>
proce eding</w>
plan ts.</w>
open .</w>
monitor ing,</w>
evalu ated</w>
ear th</w>
Vo ting</w>
Roth -
P utin</w>
Mic hel</w>
Ice land</w>
A then
t /
ste d
sche me.</w>
sav ed</w>
per forming</w>
ob sole
mor n
min ded</w>
min d
ha d,</w>
contrac ts,</w>
compli ment</w>
co w</w>
ce -
c í
appl y.</w>
[ COM(
Soc rates</w>
Sad ly,</w>
O ,</w>
Im ple
Assemb ly,</w>
up dating</w>
un resolved</w>
through ,</w>
scienti fic
ridicul ous</w>
r a</w>
organis ation.</w>
limi ted.</w>
harass ment</w>
ga ther</w>
detain ed</w>
dam ages</w>
consum er,</w>
conflic ts,</w>
choo sing</w>
atten ding</w>
Part ner
G S
For mer</w>
Fin ally</w>
Deleg ation</w>
Ash ton</w>
9 /
(I NI
substan ces,</w>
ri ous</w>
mea suring</w>
exis ts.</w>
ex ported</w>
condem ns</w>
classi fied</w>
author iti
Moroc can</w>
EU- Russia</w>
Dar fur</w>
Certain ly,</w>
veri fy</w>
understan d.</w>
un avoid
trans action</w>
success ful,</w>
per mission</w>
organis ms</w>
fo ld</w>
fair ness</w>
entr usted</w>
enorm ously</w>
compar ative</w>
behavi our.</w>
al 's</w>
accu ra
CO M</w>
ye d,</w>
th ing:</w>
nigh t,</w>
kilomet res</w>
hygien e</w>
encomp ass
b ought</w>
as signed</w>
OSC E
K u
14 9)</w>
up per</w>
st ore</w>
simultane ously</w>
sho t</w>
reli ability</w>
ra rely</w>
occur ring</w>
mur de
flo od</w>
desper ately</w>
decad es,</w>
bon ds</w>
Minis ter
Le ague</w>
G B
Com petition</w>
A i
y i
un usual</w>
tigh ten</w>
sit ting,</w>
re war
per formed</w>
oper ators,</w>
metho d,</w>
gr ation</w>
fe atu
distor t</w>
dis appear</w>
dela y,</w>
concei vable</w>
conce al</w>
bar ome
auspic es</w>
accep t.</w>
P ur
Croati a,</w>
B en
At lan
Are a</w>
2 5,</w>
ver s.</w>
su re.</w>
read ily</w>
profes sion</w>
produc tiv
in stig
imprison ed</w>
fan tas
ele ven</w>
dread ful</w>
distinc t</w>
curren cies</w>
comb ining</w>
cl in
ci ve</w>
bree ding</w>
as sa
Venezu el
UC LA
Tom or
L in
K ash
Conven tion
tan cy</w>
scep tical</w>
real ize</w>
pre su
pion e
peac e-
parlia ment,</w>
ex cus
correc t,</w>
alis ed.</w>
ab sent</w>
Ra ther</w>
M é
I vo
Beh rend
4 2</w>
wis e.</w>
un controlled</w>
tri alogue</w>
trans f
spir it,</w>
re build</w>
prag m
on ce,</w>
lo ading</w>
f lic
exce eded</w>
embr ac
car cino
a )</w>
Serbi a,</w>
Secre tari
Inde ed</w>
Gar cí
EG F</w>
Car dif
Can ary</w>
CF P</w>
sign atures</w>
secretari at</w>
remem bered</w>
justifi able</w>
es '.</w>
aquac ulture</w>
R ather,</w>
Le h
Davi d</w>
Alger ian</w>
7 5%</w>
v al,</w>
unequivoc al</w>
su nam
st up
reg ain</w>
preg nan
prefer able</w>
n am</w>
inju red</w>
foo t-and-
distur bing</w>
dis ability</w>
dele te</w>
citi es.</w>
car s,</w>
c lic
boundar ies</w>
at tain</w>
al :</w>
acces s,</w>
W hi
N ab
In ci
Cub a,</w>
Argen tin
week end</w>
tic ke
sub mission</w>
re alisation</w>
quot as,</w>
person s.</w>
neo liberal</w>
machin ery</w>
ma ,</w>
ign or
fair .</w>
expan ded</w>
contrac ts.</w>
argu ing</w>
Some thing</w>
/9 6</w>
wis dom</w>
un realistic</w>
super flu
resolu tely</w>
pat tern
manag ers</w>
go als,</w>
given .</w>
g ree
g as,</w>
fol lowe
doc tr
discrimin ated</w>
corri d
chai red</w>
Viet nam</w>
R and
F ar
C ô
‘ no
w rec
sho o
respon ds</w>
ra y</w>
pro vin
pro fi
poul try</w>
long er.</w>
explain s</w>
death .</w>
de al.</w>
competi tors</w>
civil ised</w>
analy sed</w>
amoun ting</w>
ag ri
a j
S in
No bel</w>
H or
Co el
B asi
Agen cy.</w>
6 5</w>
ve ly,</w>
tri als</w>
su ch.</w>
sho p</w>
increas e,</w>
her o
dis played</w>
cri tici
car s.</w>
bo x
Ha iti</w>
H ab
wat ch
selec tive</w>
phenomen a</w>
la stly,</w>
l 's</w>
g on
ful l.</w>
forwar ded</w>
fe eding</w>
expl ore</w>
determin ation.</w>
be e
Rand zi
H is
Bour lan
7 /200
yi eld</w>
follow .</w>
flexi bility.</w>
du ties.</w>
attack ed</w>
ag grav
T R
7 -0
4 6</w>
tim ber</w>
team s</w>
specul ative</w>
re )</w>
prof oun
op position.</w>
o il
meet ings.</w>
lab our
i -
exclu sion,</w>
enc y,</w>
do ?</w>
correspon ds</w>
cop y</w>
ci ted</w>
ade n</w>
accoun tabil
To o</w>
Johannes burg</w>
GD P.</w>
Europe an
work place</w>
un justified</w>
righ tly,</w>
materi als.</w>
l ity</w>
l ending</w>
impro ved,</w>
im minent</w>
fulfil ment</w>
fea sibility</w>
factor s,</w>
e di
di lem
cur ta
cul min
bas ed.</w>
accep table,</w>
Russi ans</w>
Mea sures</w>
L aw
Cô te</w>
w ante
us ers.</w>
su icide</w>
rest .</w>
offen sive</w>
nation ality</w>
mu til
ir rever
in k
cour t.</w>
ce 's</w>
biome tric</w>
Randzi o-
Palaci o</w>
Citizen s</w>
y an
wha t,</w>
tun ne
ti ble</w>
thin k
stimul us</w>
servan ts</w>
sacrific e</w>
remem ber,</w>
pen e
modif y</w>
lo st.</w>
ligh t.</w>
in cum
hear t
e th</w>
cir cle</w>
Roth- Behrend
Nor way</w>
I .</w>
Ex plan
weap ons,</w>
under stoo
t sunam
ru m
red ress</w>
recover y.</w>
procu re
postpon ement</w>
op tim
mir ac
imp unity</w>
imp act,</w>
endor ses</w>
cris is
appro val.</w>
R ,</w>
Protocol .</w>
E E
4 5
é s</w>
z .</w>
wea ther</w>
up-to- date</w>
set t
oun ds</w>
opt- out</w>
metho d.</w>
ish es</w>
individu als,</w>
hosp ital</w>
hel d.</w>
ge d,</w>
effici ently.</w>
chi ef
b a</w>
ation s;</w>
are :</w>
acces sibility</w>
Poet tering</w>
Azerbaij an</w>
4 9</w>
201 1,</w>
un conditional</w>
trans form</w>
temp tation</w>
tas ks.</w>
subscri be</w>
straight forward</w>
public -
proceed ings.</w>
port :</w>
part y.</w>
over ri
lobb ying</w>
herit age.</w>
gentle men.</w>
fal si
dischar ge.</w>
disappe arance</w>
competi tive,</w>
commo di
au l</w>
arri ving</w>
ab road.</w>
Su u</w>
S el
Copenha gen.</w>
Chin a's</w>
1. 5</w>
re view.</w>
ol d,</w>
manufac tured</w>
intro duced,</w>
g am
extraordin arily</w>
excell ence</w>
exampl es.</w>
citizen ship.</w>
Tem por
Sud anese</w>
Sch re
Nex t</w>
? '</w>
( 1
z es</w>
we ar</w>
ve -
s port.</w>
ro se</w>
remin ding</w>
proportion ality</w>
ment '</w>
invest ments,</w>
ing ra
gamb ling</w>
fuel s,</w>
f righ
dispos al.</w>
des p
con formity</w>
Yester day,</w>
Valen ci
Union ;</w>
Some times</w>
Or te
Med ina</w>
youn ger</w>
sligh test</w>
se ed</w>
rati o</w>
profes sions</w>
im po
ex changing</w>
el l
con templ
ban .</w>
autom otive</w>
aspec t.</w>
analys is.</w>
addi tives</w>
EC R</w>
Certain ly</w>
CA P,</w>
Barni er</w>
3 9
19 ,</w>
with drawing</w>
tru st.</w>
sigh ted</w>
si mis
re view,</w>
fronti ers</w>
figu res.</w>
existen ce.</w>
con vers
alread y,</w>
aircra f
State s;</w>
Israel 's</w>
Ass ist
200 1
11. 30</w>
ten ds</w>
st an</w>
speci ally</w>
shor ter</w>
shoc king</w>
religi on,</w>
mis use</w>
lo an</w>
licen sing</w>
legisl ators</w>
inter action</w>
immedi ately,</w>
high ,</w>
frank ly,</w>
formul ation</w>
fe e</w>
em in
destin ation</w>
bul k</w>
Council s</w>
An kar
201 2.</w>
1 8,</w>
war ned</w>
sing le-
se en,</w>
regre ts</w>
re new</w>
prosper ity,</w>
o v
her self</w>
ge ly</w>
dis tric
defe at</w>
creati vity</w>
affor ded</w>
Yugoslavi a.</w>
U gan
Techno logical</w>
1 6,</w>
tim ing</w>
su dden</w>
stud y,</w>
spee ding</w>
se af
ri ver</w>
preci ous</w>
modern ising</w>
meet ings,</w>
low .</w>
incur red</w>
feed ing
distribu te</w>
conflic ting</w>
choic e,</w>
accommo date</w>
Tempor ary</w>
Rob ert</w>
Rec ent</w>
An ge
8 /200
veri fication</w>
substan ce,</w>
si ded</w>
reinforce ment</w>
referendu m,</w>
rapporteur ’s</w>
pu pil
our s.</w>
lim its.</w>
frame works</w>
fin es</w>
err a</w>
cou p</w>
citi es,</w>
alis ation,</w>
agree d,</w>
U r
Tues day</w>
E l</w>
Cub a.</w>
weak est</w>
scen e</w>
pes simis
enjo ys</w>
Y RO
T .</w>
C hap
A ung</w>
zen s</w>
stud ying</w>
oper ators.</w>
oper ations,</w>
marke t-
im poses</w>
hear d.</w>
farmer s'</w>
euro zone</w>
ed op
dram atically</w>
dom ain</w>
deb t.</w>
bot t
abandon ing</w>
Nab uc
L ist</w>
Dal ai</w>
Ber lin
6 /200
with standing</w>
vie we
tru th.</w>
self- determination</w>
rec ently.</w>
posi tions,</w>
pornograph y</w>
low ering</w>
l ate,</w>
ins ists</w>
influ ence.</w>
in effective</w>
in dign
deleg ated</w>
de vi
catastro phic</w>
bil isation</w>
applic ation.</w>
adjour ned</w>
P E
L or
var ying</w>
tion ed</w>
statis tics,</w>
point less</w>
people '</w>
pa y.</w>
no ,</w>
les ser</w>
gri ps</w>
divi ding</w>
deep -
deal ings</w>
competen ce,</w>
balan ced,</w>
allow ance</w>
aim ,</w>
a ven
S ter
P ir
Inci den
un reasonable</w>
un ity.</w>
un democratic</w>
s ch</w>
realis tic.</w>
paren tal</w>
oun d.</w>
neglec ted</w>
ne ts</w>
marke t
for t
exis ts,</w>
as bes
Isl am</w>
unilater ally</w>
ul tra-
su s</w>
stu dent</w>
secon d,</w>
respec ts,</w>
n ant</w>
mon y</w>
large ,</w>
go al,</w>
eng ine</w>
chi ef</w>
Si erra</w>
S hi
9 5</w>
vir tual</w>
stree t</w>
seri ous.</w>
reser ve
nigh t.</w>
i er
gener ic</w>
fiel ds.</w>
dies el</w>
conf is
Sustain able</w>
ter med</w>
ten ding</w>
pris ons</w>
mis take.</w>
incin eration</w>
immigr ant</w>
ger ing</w>
employe e</w>
develo ped,</w>
deri v
an nex</w>
al ;</w>
P O
wor d.</w>
op pression</w>
m ou
ligh t,</w>
hypo critical</w>
fro m.</w>
environment ally-
corrup t</w>
claus e,</w>
ans '</w>
acce de</w>
W IF
Un like</w>
R ac
Fac ed</w>
stop ping</w>
sovereign ty.</w>
smugg ling</w>
smar t</w>
pre conditions</w>
materi als,</w>
liber alising</w>
la st.</w>
in correct</w>
gran d
en vo
destruc tive</w>
cal end
an cient</w>
Yester day</w>
Ul tima
S cand
Regul ations</w>
Re gre
Guine a</w>
Com peti
Bosni a-
Avi ation</w>
20 th</w>
weak ened</w>
sulph ur</w>
sor ry,</w>
pho to
pas sion
pa ve</w>
observ ance</w>
l oud</w>
investig ated</w>
infec ted</w>
in tra-
in s.</w>
in o,</w>
har d-
fr ank</w>
discus sed,</w>
O per
Nic e,</w>
Ne ed
F A
worsen ing</w>
view s,</w>
shi pow
resto red</w>
res is
qui ries</w>
pre domin
pers on,</w>
pa edop
leg ality</w>
imp acts</w>
cru el</w>
W ar,</w>
St an
Netherlan ds.</w>
Mul ti
D ap
B is
& D</w>
world ’s</w>
sche me,</w>
recipro city</w>
na me.</w>
li es.</w>
ga thering</w>
fai th
factor s.</w>
facilit ation</w>
de gre
com ment.</w>
ar rog
R econ
I I,</w>
1 7,</w>
(A 6-0
u de</w>
nam o</w>
nam ed</w>
lor ries</w>
justifi es</w>
h us
fe es</w>
en forcing</w>
danger ous.</w>
cris es.</w>
conf erred</w>
avoide d.</w>
al arm</w>
J our
I S
Guantá namo</w>
Assemb ly.</w>
( 2
retain ing</w>
plan ning,</w>
o be
missi on.</w>
migr ation.</w>
institu te</w>
import ing</w>
hones tly</w>
here :</w>
fe ar
f its</w>
equip ment.</w>
e ating</w>
contemp t</w>
conserv ative</w>
benefici ary</w>
ambiti ous,</w>
acciden ts.</w>
Re public.</w>
R en
Moroc co,</w>
K au
199 9)</w>
work ing,</w>
us :</w>
rela unch</w>
ques tioning</w>
plen ary,</w>
partner .</w>
p it
in consisten
in come,</w>
gras p</w>
design ate</w>
d' Ivo
compar is
Yugoslavi a,</w>
tri p</w>
treati es.</w>
k en.</w>
it en
in tent</w>
in admissi
imp ly</w>
ic k</w>
evi l</w>
equ ity</w>
ed ge</w>
ear ing</w>
di gni
consider ations.</w>
border ,</w>
at om
Sch mid
R ight</w>
Commission :</w>
vo tes,</w>
us el
unequivoc ally</w>
thres hol
te d;</w>
pa yer</w>
occur s</w>
multi lingu
mo re
inv asion</w>
in s,</w>
im ages</w>
igh bour</w>
clima te.</w>
broad band</w>
asyl um.</w>
arch ing</w>
Trans paren
T ro
S ir</w>
Gener al,</w>
G od</w>
ym me
trans pose</w>
so on,</w>
ses sions</w>
s ).</w>
rapporteur s.</w>
mor tality</w>
mess age.</w>
ex ports.</w>
depl or
congratul ated</w>
be ef
as ymme
applic ants</w>
agree d.</w>
S WIF
Ro s
Regre t
Musli ms</w>
Me dic
Le in
Indonesi an</w>
4 1</w>
201 3,</w>
voic e.</w>
valu ed</w>
up held</w>
tw o
tle ment</w>
symb ols</w>
resi ding</w>
repe ti
pri ze</w>
polic e,</w>
plan ts,</w>
per tin
oun ded</w>
ne ighbour</w>
mod al</w>
incum bent</w>
gentle men</w>
fisher ies.</w>
extremis t</w>
der ive</w>
conveni ence</w>
arrange ments.</w>
ad ,</w>
accor d</w>
Scand in
Li ke
Kore a,</w>
EI B
Coun tries</w>
Cost a</w>
Chechny a.</w>
socie ties,</w>
s we
rac ism,</w>
missi on,</w>
he at</w>
h il
dri ver</w>
descri bes</w>
defend ers</w>
d il
constra in
commem or
campaign .</w>
ban ks.</w>
answ ers.</w>
ac ies</w>
Se at
Net work</w>
Inciden tally,</w>
Euro just</w>
Auditor s'</w>
war nings</w>
vie r</w>
mean ,</w>
frag mentation</w>
fat al</w>
failu res</w>
ex tern
escal ation</w>
equi p</w>
e cho
crim es.</w>
Wat son</w>
Pro gres
NATO ,</w>
Is lands</w>
Indi a.</w>
Bu iten
8 .
welf are.</w>
un willing</w>
summ its</w>
suffici ent,</w>
sh ops</w>
rac ial</w>
prostitu tion</w>
profoun dly</w>
prioriti se</w>
optimis m</w>
op oulo
obser ving</w>
n ation,</w>
influ x</w>
increas ed,</w>
in humane</w>
ho f
he dge</w>
fraud ul
foot-and- mouth</w>
en ligh
detain e
border .</w>
assis ted</w>
acknowled ging</w>
S av
Pover ty</w>
Mar t
Leon ar
Dar fur
199 4,</w>
(Appl ause</w>
suppl ying</w>
resol ved,</w>
predic table</w>
pack ag
mer gers</w>
legisl ator</w>
journ alist</w>
inde fin
human ity.</w>
fif ty</w>
democr ats</w>
bra in</w>
b iting</w>
as k
W yn
Georgi a.</w>
E rit
Direc tor</w>
D ata</w>
C D
Bas el</w>
won dering</w>
tr e</w>
s port,</w>
road s.</w>
mu m</w>
ly ?</w>
hon oured</w>
hon est
ge d.</w>
brief .</w>
bloc ks</w>
Uni versal</w>
ED F</w>
Comb ating</w>
C ast
3 9</w>
th ri
t g
specific ,</w>
schedu le</w>
s est</w>
princip ally</w>
pric e,</w>
pre- emp
neglec t</w>
la h</w>
individu als.</w>
hesit ate</w>
h ra
fan atic
f athers</w>
cour ts.</w>
contradic tions</w>
continent al</w>
clear ly.</w>
bra ve</w>
b ag
Su preme</w>
S ac
F YRO
Egyp tian</w>
5 /
tur no
succe ed.</w>
rel ying</w>
recommend ations,</w>
pos session</w>
opposi te.</w>
n dez</w>
inspir ation</w>
dar k</w>
d s:</w>
critic ism.</w>
ban ,</w>
U p</w>
Pre vention</w>
with drawn
pres s.</w>
po is
grow ers</w>
feeding stuff
coordin ator</w>
contra st,</w>
confidenti ality</w>
break down</w>
bas e.</w>
author ise</w>
alis t,</w>
Eston ia,</w>
Agree ments</w>
vari ed</w>
under going</w>
u li
ple dge</w>
pl as
o il.</w>
han ds.</w>
ex por
continu ously</w>
construc t</w>
alis ation.</w>
a way,</w>
Turke y’s</w>
Sweden .</w>
Mar í
Kal in
Guar ante
Go als</w>
GD P,</w>
Co ordin
Am nesty</w>
Ab k
win d
week 's</w>
vi rus</w>
un reserve
syner gies</w>
suf fe
representati ves.</w>
provi ded.</w>
oper ated</w>
liter ally</w>
insis tence</w>
inde ed.</w>
in justice</w>
holi day</w>
feder alist</w>
fal us
consult ation,</w>
campaign ,</w>
Safe ty,</w>
Europe ;</w>
web site</w>
up holding</w>
underp in</w>
trage dies</w>
tr y,</w>
te ly.</w>
tax es.</w>
stres s,</w>
separ ately</w>
quo te,</w>
polic y
pers ist</w>
p id
member ship,</w>
le vi
hones t,</w>
hof stad
expres sion.</w>
diagno sis</w>
cros s
blat ant</w>
Ver hofstad
US A.</w>
Lam falus
sol ar</w>
rejec ted,</w>
quot as.</w>
od ds</w>
life -
inter net</w>
ensu re,</w>
do zens</w>
def ence.</w>
def ence,</w>
budge ts,</w>
ai led</w>
Os se
Instru ment</w>
Burma .</w>
ACP -EU</w>
was ted</w>
traffic .</w>
si a</w>
qu e
origin ating</w>
measu res
friend s,</w>
every one's</w>
bas ed,</w>
Tunis ian</w>
Leban ese</w>
Initi ative</w>
D ,</w>
Chap ter</w>
y ing,</w>
that :</w>
sy l
sole m
small -</w>
ish ment</w>
invest ments.</w>
g aller
for bi
fashi on</w>
ans we
Wi j
F ab
B earing</w>
Ad mitte
( M
we igh</w>
tex ts,</w>
te -
report :</w>
part-ses sion,</w>
pap er,</w>
momen ts</w>
li bri
leg acy</w>
labe ls</w>
ges ture</w>
frequ ency</w>
fing er</w>
essen ce,</w>
equip ment,</w>
equi libri
enc y.</w>
deman ds,</w>
acces s.</w>
ab ly.</w>
Ukra ine
T s
Ser bs</w>
Po si
NATO .</w>
Montene gro
tro op
s ted</w>
remain ,</w>
recommen ding</w>
liber ties</w>
imp as
duplic ation</w>
du ty,</w>
disappe ared</w>
devic es</w>
coun cil</w>
clo sest</w>
calcul ation</w>
buil ding,</w>
ab use.</w>
Trans atlantic</w>
Sahar an</w>
May be</w>
Ber è
2 2
un known</w>
tempor arily</w>
righ t-wing</w>
potenti al,</w>
opinion s,</w>
op ting</w>
mat u
lu ck</w>
ilit ary</w>
harmon ious</w>
every thing.</w>
dom ain
de -
concen tra
ce ll</w>
call y.</w>
Jap an.</w>
Budge ts.</w>
Abk haz
year- old</w>
simple ,</w>
rep lies</w>
promp ted</w>
pr int</w>
persu aded</w>
lobby ists</w>
less -
instruc tions</w>
harmon y</w>
factor y</w>
expec tation</w>
ex -
distribu ting</w>
ble s</w>
ad m
S he
FI N</w>
Ex peri
199 1</w>
00 0.</w>
web si
ter m
ter ing,</w>
ses sion,</w>
s on.</w>
s log
reluc tant</w>
parti te</w>
is ts.</w>
he ating</w>
g ing.</w>
epidem ic</w>
enti ty</w>
cost ,</w>
associ ate</w>
any thing.</w>
Macedon ia,</w>
Kalin ingra
K all
Dap hne</w>
D ay
Blo k
Alzheim er's</w>
Ad di
2. 5</w>
wat ers,</w>
v aries</w>
supervis ion.</w>
ra pe</w>
penal ise</w>
lea p</w>
ga thered</w>
fish ,</w>
ele ments.</w>
autom ob
agenc y,</w>
ab us
a pe
Mal ay
Hau tal
HI V</w>
Georgi an</w>
Fif th</w>
Canad a,</w>
Bi o
199 5.</w>
stabil ising</w>
short ly.</w>
qui et</w>
perpe tu
pass port</w>
in jur
ic al.</w>
high- speed</w>
given ,</w>
fac ilities.</w>
bom b</w>
ate mal
as ha
al ways,</w>
aggres sion</w>
S port</w>
S atur
Gu atemal
Erit re
Corbet t</w>
usu al,</w>
useful .</w>
under took</w>
though t,</w>
stoc k
recon cili
presiden cies</w>
politici an</w>
pack ages</w>
n ation.</w>
lear ning,</w>
h ing</w>
feel ,</w>
endan ger</w>
defini tion,</w>
cle .</w>
appe arance</w>
W ar.</w>
Presiden ts,</w>
Over all,</w>
Gre ater</w>
D P</w>
C lo
(A4-0 0
ther ap
symp tom
spen ding.</w>
resu mption</w>
pub lis
p ages</w>
n a</w>
l '
illic it</w>
frustr ation</w>
expres sions</w>
ear ning</w>
discre tion</w>
del aying</w>
decisi vely</w>
cur b</w>
class es</w>
boy cot
antibio tics</w>
Pakist an.</w>
Lithuan ian</w>
I V</w>
Europe :</w>
ECO FIN</w>
Bet ter</w>
tour ists</w>
supple mented</w>
re building</w>
pha se,</w>
pen sions,</w>
opti mum</w>
mu sic</w>
methodo logy</w>
it u
eas y.</w>
dis coura
differenti ated</w>
differen ce.</w>
celebr ating</w>
U R
Resear ch,</w>
P s</w>
Mi gu
tou ches</w>
te l</w>
ta gon
t !</w>
reaffirm ed</w>
re viewe
publ ishing</w>
point s:</w>
pl un
opinion s.</w>
mor tg
lef t,</w>
in o
imprison ment</w>
groun ds.</w>
de pos
child care</w>
ati ves,</w>
Sta bilisation</w>
z ar
tol l</w>
some thing.</w>
share hol
seven th</w>
settle ments</w>
s m</w>
reac hed,</w>
re fin
pru dent</w>
priv atis
offici als,</w>
o zone</w>
harmon isation,</w>
consoli d
Thessalonik i</w>
R A
Qu e
Le vel</w>
C ash
C S
AID S,</w>
z e,</w>
tigh tening</w>
su peri
stoc ks,</w>
road map</w>
remin der</w>
non- proliferation</w>
medicin es,</w>
ideo log
hal f,</w>
elec t</w>
d rough
critic ism,</w>
begin ning.</w>
as k,</w>
appe ar
adul ts</w>
B R
targe ting</w>
passeng ers.</w>
part ner,</w>
p al
no thing,</w>
ma fi
fe ar,</w>
du ties,</w>
d s?</w>
countr ysi
centu ries</w>
arrange ments,</w>
Ster ck
Lukashen ko</w>
/0 2
speci es.</w>
s port
reimbur sement</w>
prece ded</w>
polic i
o lic</w>
liber alise</w>
h op
h er.</w>
ge dly</w>
fiel ds,</w>
farm ing,</w>
ele ments,</w>
disgrac eful</w>
dee pen</w>
compens atory</w>
cl am
character istic</w>
ch equ
c ker</w>
bur g,</w>
buil ding.</w>
at -
UN H
Flo rence</w>
EU- US</w>
Croati an</w>
Cath olic</w>
4 7
trac ted</w>
safe ,</w>
regre t,</w>
re distribution</w>
practi se</w>
persecu ted</w>
occup y</w>
ly ;</w>
like li
k m</w>
k i
forest ation</w>
em en</w>
dispos al,</w>
cruci al,</w>
cha in.</w>
Verheu gen,</w>
S ti
Pi e
O t
Chech en</w>
B ased</w>
you :</w>
soun ds</w>
seaf are
rec re
re vol
re o
or dered</w>
n ative</w>
ma ke,</w>
liberalis ation.</w>
in consistent</w>
igno red.</w>
don ation</w>
de cei
contradic t</w>
con du
comp lies</w>
clo se,</w>
bes t,</w>
Lan no
Is lan
Chan ge</w>
Canad ian</w>
Auditor s.</w>
/9 9</w>
today '</w>
sustain able,</w>
ob es
ly n
limi ted,</w>
entreprene uri
endeav ouring</w>
end less</w>
e !</w>
atro cities</w>
acceler ated</w>
S C</w>
Je an-
Egyp t,</w>
An im
te ach</w>
strate gies.</w>
stan d,</w>
significan t.</w>
si ck</w>
shoc k</w>
remar ks,</w>
premi um</w>
ph one</w>
pen sions.</w>
on ym
obli ge</w>
no ting</w>
nar row
na me,</w>
hones ty</w>
g ing,</w>
fortun ate</w>
fisher men,</w>
exerc ise.</w>
en counter</w>
construc tively</w>
appl ause)</w>
air ports.</w>
Ombuds man,</w>
Lan k
Cambodi a</w>
5 -
200 2
terroris m
spo t</w>
open -
gen der
f ast-
exacerb ated</w>
e du
di d.</w>
cultur al,</w>
ar rests</w>
Sta ff</w>
S cho
Lef t/
199 8
w ate
vit al.</w>
specific ations</w>
re member
rati fying</w>
question ed</w>
pan el</w>
le ast.</w>
forward- looking</w>
flexi ble,</w>
deser ti
deple ted</w>
crim es,</w>
comple ted.</w>
collec tively</w>
chocol ate</w>
att acking</w>
ar ose</w>
W il
V ir
Left/ Nordic</w>
union s,</w>
pha sed</w>
li es,</w>
le y,</w>
l ay
illu strated</w>
example :</w>
enem y</w>
destruc tion.</w>
destin ed</w>
ar able</w>
Soci ety</w>
Sarkoz y</w>
Par ty.</w>
Ho pe
G or
widen ing</w>
viol ating</w>
supporte d,</w>
suppor ter</w>
su it</w>
stead y</w>
speak ers.</w>
ric e</w>
referr al</w>
po or.</w>
ple a</w>
pa th.</w>
one :</w>
municip al</w>
medi ation</w>
labell ing.</w>
justifi ed,</w>
incl ined</w>
im partial</w>
h ed</w>
grass -
free zing</w>
deci ded,</w>
cen sor
barbar ic</w>
Minu tes.</w>
G ames</w>
Fisch ler,</w>
traffic ,</w>
state ments,</w>
sk y</w>
schem es.</w>
remo ved.</w>
parlia ment.</w>
inter cultural</w>
ho t</w>
ho stage</w>
flo or,</w>
fi er
effectiven ess.</w>
dist res
deb t,</w>
consis ting</w>
conf use</w>
compens ation.</w>
clean er</w>
c ity,</w>
bio diversity.</w>
ba thing</w>
architec ture</w>
ali ve</w>
Schul z,</w>
A syl
z u</w>
w ri
v ent</w>
us ers,</w>
us ?</w>
tis su
tim escal
t on.</w>
summ er,</w>
squ are</w>
signific ance.</w>
polic y?</w>
pir acy</w>
g as.</w>
func tion.</w>
farm ing.</w>
em bas
edu cated</w>
con form</w>
bot tom
behin d.</w>
appe aling</w>
ape u
alread y.</w>
Parliament :</w>
Organ iz
Marke t.</w>
I T</w>
D ue</w>
4 7</w>
/0 1
(CO S)
tw o,</w>
sec ular</w>
rela x
quali fy</w>
off set</w>
mon ey
inci dence</w>
il lan
ful l,</w>
fac ts,</w>
effec ts,</w>
e e
Ombudsman .</w>
O fficial</w>
Like wise,</w>
Bar ing
(INI )
ves ted</w>
ti .</w>
studi es,</w>
spac e.</w>
sco re
re ly,</w>
re funds</w>
ple d
ou tri
nor th-
mi li
li ve.</w>
is en
ir o</w>
fac e,</w>
emo tional</w>
digni fied</w>
complex ,</w>
approxim ation</w>
am ple</w>
alis ed,</w>
al lot
Bus h
Al most</w>
tr act</w>
tor .</w>
ste reo
op lan
gener o
fri end,</w>
free ze</w>
free .</w>
differen ces,</w>
depri ve</w>
counter parts</w>
confirm ing</w>
comm on,</w>
break through</w>
access ing</w>
Con gres
C al
Braz il,</w>
Baring dor
3 3
win es</w>
treati es,</w>
threat ,</w>
theore tical</w>
t ’s</w>
sum mit
state -
ren oun
privi leges</w>
polic y-
petro l</w>
pen al</w>
our s,</w>
noti fied</w>
la ud
import s.</w>
gi v
factor ies</w>
enthusias tic</w>
emer ges</w>
country side</w>
connec tion.</w>
con cur</w>
aim .</w>
a vier</w>
Sun day</w>
Re port:</w>
E v
E T
( and</w>
tro pical</w>
them es</w>
surve illan
sp ous
securi ties</w>
passen ger
out look</w>
or ph
nation alism</w>
militar isation</w>
intermedi ate</w>
independen t,</w>
im pover
gre y</w>
fulfil s</w>
elec tion.</w>
dif fers</w>
dict ator</w>
certific ates</w>
as certain</w>
arran ge</w>
al ia,</w>
adj usted</w>
Tri bunal</w>
Progres sive</w>
L ud
In dependent</w>
3 0,</w>
vol um
vic ious</w>
ty p
track .</w>
syner gy</w>
resolu te</w>
preg nant</w>
ped us
nis tri
insul t</w>
in 's</w>
identi ty,</w>
herit age,</w>
ha ul
determin ation,</w>
compan y.</w>
cle ans
cele bra
bureaucr acy,</w>
balan ced.</w>
Union :</w>
Lam pedus
Kore a.</w>
House 's</w>
4 9
vo ting,</w>
trans mitted</w>
st s.</w>
pla y,</w>
pati ence</w>
pa y,</w>
ou tra
mobil ising</w>
minis ter,</w>
inten tions,</w>
hel d,</w>
experi ments</w>
embar ked</w>
claus e.</w>
awar ding</w>
ar d,</w>
aer oplan
advis able</w>
W here
Hon ourable</w>
C E</w>
Be sides,</w>
20 5
useful ,</w>
trans actions.</w>
spen t.</w>
sib ly</w>
prepare d,</w>
pre sup
poss ess</w>
particul arly,</w>
p ast
over all,</w>
milest one</w>
jeopardis ing</w>
h es</w>
government 's</w>
fa ther</w>
ef e</w>
democr atic.</w>
d rought</w>
correc tly.</w>
communic ations.</w>
chief ly</w>
bo x</w>
appropri ations.</w>
Thurs day.</w>
S k
Rad ical</w>
Liber ties</w>
Gra efe</w>
vi de
v agu
two- thirds</w>
tro ika</w>
tri um
train s</w>
tough er</w>
sustain ability.</w>
st ones</w>
spac e,</w>
predic t</w>
modi fications</w>
m on</w>
hi bi
head quarters</w>
ground water</w>
entrepreneuri al</w>
eas y,</w>
differen ces.</w>
critic ising</w>
cre w</w>
cere als</w>
bro aden</w>
bloo dy</w>
accep t,</w>
Ta ke</w>
S ene
Ne w
Mon day,</w>
Mart í
I z
GB P</w>
Copenha gen,</w>
Commission ers.</w>
C ity</w>
y s,</w>
welf are,</w>
territor ies.</w>
safe .</w>
resign ation</w>
recipi ent</w>
on ?</w>
minis ters,</w>
loc al,</w>
le tting</w>
labour -
inv iting</w>
fro zen</w>
far mer</w>
eng ines</w>
elimin ated</w>
contribu tions,</w>
consider ations,</w>
clu b
clim atic</w>
catastrop he</w>
build ings,</w>
an e</w>
abun dan
Spe aking</w>
Protocol ,</w>
Je wish</w>
Je an</w>
J ack
G il
Committe e's</w>
C T
, 000</w>
un aware</w>
suf fers</w>
reven ues</w>
recti fy</w>
pro vince</w>
practi sed</w>
particip ation.</w>
o li
infor med.</w>
fle x
execu tions</w>
engine ering</w>
embry os</w>
discrepan cies</w>
compris ing</w>
ad .</w>
Sevil le</w>
Sch ro
R ev
Need less</w>
MEP ,</w>
J en
II .</w>
Co ld</w>
2 1,</w>
' a</w>
viol ates</w>
useful ness</w>
set- aside</w>
rap id
pass age</w>
mag nific
li er</w>
le ver
fo ol
fi able</w>
consult ation.</w>
cease fire</w>
aris e.</w>
acce ding</w>
Techno logy</w>
TE S</w>
vic tor
ty ran
tru st,</w>
ther apeu
sovereign ty,</w>
recommend ation,</w>
po or,</w>
perspec tives.</w>
logn e</w>
ir re
individu ally</w>
incin er
heart felt</w>
exer ted</w>
er ous</w>
bir ds</w>
ber t</w>
ate lli
a por
Ultima tely,</w>
Tha il
State ment</w>
Rapporte ur
I CA
Ge b
Do cu
Col lin
Co logne</w>
5. 30</w>
( 3)</w>
tra g
ten der</w>
syn thetic</w>
sop his
schem es,</w>
read s</w>
re integration</w>
ple dged</w>
per ver
pe red</w>
od d</w>
inclu de,</w>
impres sed</w>
finan ces.</w>
fi re
expe di
excep tion.</w>
cru el
controvers y</w>
are d.</w>
anti- discrimination</w>
V arious</w>
Transparen cy</w>
Speci fic
South- East</w>
H igh
G MO</w>
Febru ary.</w>
Ex per
Child ren</w>
201 5.</w>
us ter</w>
trans -
safeguar ded</w>
rec k
prof its.</w>
negoti ators</w>
mitig ate</w>
labell ing,</w>
ity ’s</w>
el s</w>
dynam ism</w>
conges tion</w>
condu cive</w>
comfor table</w>
citizen ship,</w>
cin em
ceil ings</w>
bom bing</w>
Nex t,</w>
Ky r
Fren ch,</w>
Cyprio ts</w>
Chechny a,</w>
CA P.</w>
199 2,</w>
uti li
trans formed</w>
tex ts.</w>
su ffic
sceptic ism</w>
remun eration</w>
produce d.</w>
process es,</w>
p ine</w>
over ly</w>
no- one</w>
lu x
loopho les</w>
foun d,</w>
entrepreneur ship</w>
dollar s</w>
descri be
dead lock</w>
cu t
communauta ire</w>
cam p</w>
beg un
ator y.</w>
Trans nistri
Ri o</w>
Re commend
C lin
A la
vege tables</w>
util isation</w>
ten th</w>
step s.</w>
s alu
reconcil ing</w>
outrage ous</w>
mo t
lon ged</w>
igno res</w>
house hold</w>
forge t,</w>
floo ding</w>
distor ted</w>
d s;</w>
cap ability</w>
aw ai
ass au
Shar on</w>
O thers</w>
M anu
Dimen sion</w>
un desirable</w>
san ction</w>
rus h</w>
of i</w>
necess ar
month ly</w>
man 's</w>
g al
fortun ately</w>
feder ation</w>
docu mentation</w>
com ments?</w>
cohe sive</w>
clear ing</w>
cent res,</w>
areas :</w>
accura tely</w>
ac company</w>
Ti me.</w>
Pe ter</w>
P h
P A</w>
O l
Nic e.</w>
N assau
Latvi a,</w>
EU RO
E m
Cardif f</w>
Az n
Admitte dly,</w>
verdic t</w>
tax payer</w>
safe ly</w>
refu ge</w>
proceed ings,</w>
postpon ing</w>
mean time</w>
ll .</w>
head ings</w>
fil led</w>
dou ble
concei ved</w>
al lowe
Wha t,</w>
Roman i
Mic hel
Kyr gy
14 0
voic e,</w>
trans plan
st aying</w>
responsib ly</w>
rein forces</w>
re- establish</w>
prison ers,</w>
pec uli
p light</w>
my self.</w>
monitor ing.</w>
land 's</w>
is ha
in i</w>
factor .</w>
extremis ts</w>
ever- increasing</w>
disappe ar
cha os</w>
as p
aim s.</w>
ab used</w>
K ofi</w>
Geb hard
Con tr
C had</w>
198 9</w>
Š pid
tan ta
sign atories</w>
relation ship.</w>
re no
me l
in deb
importan tly</w>
hau l</w>
g ames</w>
fai led.</w>
es -
en ess</w>
correc tion</w>
conside red,</w>
commod ity</w>
b ic
aver age,</w>
associ ations,</w>
alle gedly</w>
Z ai
Throu gh
Sal af
Mé ndez</w>
Member .</w>
Institu tional</w>
Bet ween</w>
tun nel</w>
thres holds</w>
tanta mount</w>
regul ators</w>
polic y;</w>
mak ing,</w>
liqui dity</w>
introduc tory</w>
instan ce.</w>
here ?</w>
devis ed</w>
design ation</w>
d ry</w>
bran ch</w>
assist ants</w>
Viol ence</w>
UN .</w>
Member 's</w>
Europo l,</w>
Du isen
Council :</w>
Austri a.</w>
Administr ation</w>
8 5</w>
whatso ever.</w>
re think</w>
re duced,</w>
provi ded,</w>
occa sion.</w>
land s
know- how</w>
exc iting</w>
even t.</w>
empha sized</w>
e ties</w>
di li
develop .</w>
commend able</w>
an ces,</w>
ai ds</w>
Th om
Nor th-
Ma j
K ong
I l
Con duc
An der
5 5
(COD) )</w>
win dow</w>
supervis ion,</w>
suffer ing.</w>
strate gy
stor m</w>
sacrific ed</w>
re jo
public ity</w>
progres sively</w>
pro xim
prerog atives</w>
plan et.</w>
oper ation
n on</w>
mess age,</w>
li ving.</w>
ir on</w>
ill ness</w>
etc .,</w>
dras tically</w>
contro ll
brief ly,</w>
bio diversity,</w>
allot ted</w>
a to</w>
a f</w>
Wallströ m</w>
Re ding</w>
R ic
P V
Europe an-
Eng land</w>
‘no ’</w>
understand ing.</w>
separ ated</w>
ris k
religi on.</w>
premi ums</w>
par ts.</w>
one- sided</w>
no where</w>
inter fering</w>
half .</w>
e z</w>
defin ed.</w>
chair men</w>
br illi
av al</w>
all u
US .</w>
Through out</w>
Pol ice</w>
O pening</w>
Jerusal em</w>
Gonzá lez</w>
Del ors</w>
CI A</w>
C E
valu ation</w>
under go</w>
un ity,</w>
though t.</w>
secrec y</w>
preven tative</w>
per cep
out lines</w>
on ly,</w>
occur .</w>
obvi ous.</w>
mis giv
ma .</w>
le vy</w>
hu gely</w>
grante d.</w>
for give</w>
f itting</w>
ex pir
envis ages</w>
defic it.</w>
constitu ent</w>
con temporary</w>
ce ments</w>
biom ass</w>
Z e
Whi te
Nabuc co</w>
Lud for
10 .</w>
w s,</w>
up coming</w>
tal ks.</w>
statis tics.</w>
some thing,</w>
rich est</w>
resolution s:</w>
mitte d.</w>
li vely</w>
dis bur
direc tly.</w>
dil u
cris es,</w>
bloo d
bal lot</w>
author ising</w>
ator y,</w>
al tered</w>
agri -
Turk men
Rom pu
L I
Hu man
H ence,</w>
G arri
Ban k's</w>
tri al.</w>
tion ally,</w>
tion al,</w>
tari ly</w>
stu ck</w>
st al
represent ations</w>
qu o</w>
oun ding</w>
nation alist</w>
mobil ised</w>
identi fies</w>
groun ds,</w>
gr and</w>
fu sion</w>
exhaus tive</w>
er '</w>
attack s.</w>
UK .</w>
Minis terial</w>
Direc tives</w>
Ch ile</w>
Alban ia,</w>
tion s?</w>
rul ings</w>
ro lling</w>
referen da</w>
profit ability</w>
pap er.</w>
off )</w>
mis understanding</w>
man n,</w>
law yer</w>
ill s</w>
ici ous</w>
harmon isation.</w>
guarante es,</w>
es ca
com ment,</w>
automob ile</w>
appropri ations,</w>
Tw en
N U
Kur ds</w>
K enn
C5-0 0
C ab
Bel grade</w>
Ankar a</w>
thin king.</w>
sti f
son 's</w>
simil arly</w>
op ath
new .</w>
memor andum</w>
financi al,</w>
fashi on.</w>
f -
chair man,</w>
cap ture</w>
Y oun
We ll</w>
Pro ces
Lond on,</w>
Ha ar
Assist ance</w>
3 50</w>
199 3,</w>
weal thy</w>
univers ally</w>
un lawful</w>
simple .</w>
sal mon</w>
sad ly,</w>
presen ted.</w>
phenomen on.</w>
pha sing</w>
percen ta
patient s'</w>
particul ar
im parti
foun ded.</w>
forec ast</w>
exacerb ate</w>
el ite</w>
ear ned</w>
du m
cr atic</w>
co er
attribu ted</w>
app ing</w>
ac commod
Vol un
San ter,</w>
Salaf ran
Rom e,</w>
Rec ital</w>
Peti tions,</w>
Hel m
Europe an.</w>
speci es,</w>
roun d,</w>
ro ll</w>
reason s:</w>
presen tly</w>
po wered</w>
passeng ers,</w>
objec tively</w>
much- needed</w>
mis ery</w>
ll a</w>
lif ted</w>
inten sity</w>
fundament alism</w>
every where.</w>
d !</w>
countri es;</w>
communic ated</w>
arti stic</w>
al so.</w>
Wednes day,</w>
Tunis ia,</w>
S án
Leonar do</w>
Lan gu
Lamfalus sy</w>
Ac cess</w>
(B 4-0
un stable</w>
twenty- first</w>
trage dy.</w>
therapeu tic</w>
road s,</w>
resi de</w>
reason ing</w>
nutri tion</w>
lit tle,</w>
improve ments.</w>
guarante es.</w>
environment al,</w>
enjo ying</w>
answ er
al tar</w>
af flic
acciden ts,</w>
SO L
Bulgari a.</w>
2 2,</w>
unreserve dly</w>
unemploye d,</w>
turno ver</w>
temp ted</w>
sta ke,</w>
sophis tic
s son,</w>
reset tlement</w>
minor ity.</w>
mill ennium</w>
intoler ance</w>
hospit als</w>
he igh
go ing.</w>
frag mented</w>
clear -
channe lled</w>
bes t.</w>
ag as
acquisi tion</w>
a ult</w>
T ric
Sem iti
SWIF T</w>
Mo z
EP P</w>
EC SC</w>
E qual
( 8
y !</w>
un declared</w>
than ks,</w>
sup port
si di
row ,</w>
ros s-
prescri bed</w>
pre val
mach ine</w>
legitim acy.</w>
lear ning.</w>
k a
it !</w>
indic ator</w>
gl ass</w>
expul sion</w>
ener ge
convic ted</w>
bom bs</w>
b lan
attack s,</w>
anxi ety</w>
Youn g</w>
Th ings</w>
SOL VI
Procedu re)</w>
Pres tige</w>
Palestin e,</w>
Opportun ities</w>
C a
- .</w>
é r
tow n
sphe res</w>
ro t
prescri p
p ater
mo tion,</w>
mid st</w>
k i,</w>
journ alists,</w>
hecta res</w>
he ed</w>
futu re?</w>
fab ric</w>
dro pped</w>
deplo y</w>
cot ton</w>
ation s'</w>
Scot land,</w>
P lat
H ugh
D ü
Cour t's</w>
C row
A long</w>
wrong ly</w>
wish .</w>
te d:</w>
s can
recommend ation.</w>
provision ,</w>
out set.</w>
offici als.</w>
ment s;</w>
l un
ill iter
di r
denti als</w>
com posed</w>
com plac
accoun ts.</w>
ab u
Tit le</w>
S am
Regret tably,</w>
Quarte t</w>
M r.</w>
Ar rest</w>
' s,</w>
your self,</w>
vessel s,</w>
tho do
thes is</w>
subsidis ed</w>
stam p</w>
sp ire</w>
six- month</w>
sha re.</w>
qui er
particip ation,</w>
interven ing</w>
i tes</w>
gra ms</w>
dis courage</w>
convic tions</w>
confron tation</w>
border ing</w>
adhe rence</w>
Gi br
Fun ctioning</w>
Four th</w>
F am
volun tar
toge ther
summer .</w>
studen ts,</w>
se ized</w>
mis er
likeli hood</w>
lea ve.</w>
hous ing,</w>
hear ts</w>
fac ilities,</w>
f ile</w>
dump ing.</w>
dis posed</w>
descri bing</w>
de port
cou pled</w>
ch et</w>
bur ning</w>
back wards</w>
al though,</w>
President-in-Offic e.</w>
Minis ter.</w>
C un
‘ the</w>
tw o.</w>
tor ture,</w>
tin y</w>
st y</w>
spee di
shipy ards</w>
set ê
s is
rel atives</w>
rec alled</w>
re t
presen ted,</w>
pre tend</w>
pollut ants</w>
ou se</w>
no vel</w>
nex t.</w>
labe lled</w>
intimi dation</w>
in tr
hosti le</w>
h inde
de l</w>
cum ber
al together</w>
Particul arly</w>
Ne goti
Minu te
Iz quier
Gros setê
GS P</w>
Experi ence</w>
Cancú n</w>
Asyl um</w>
Armen ian</w>
2 7,</w>
win ner</w>
whol es
vigil ance</w>
trig gered</w>
time table.</w>
proper ty.</w>
proper ty,</w>
mo des
go ld</w>
excep tion,</w>
e gg
de al,</w>
certain ty.</w>
cancell ation</w>
atten dance</w>
as e,</w>
Zimbabwe .</w>
Uni versity</w>
P ack</w>
Mc Kenn
Gu ide
wh is
tas ks,</w>
soci alists</w>
scrupul ous</w>
protec ted,</w>
incorpor ates</w>
in quir
gener ates</w>
fulfil led.</w>
environmentally- friendly</w>
endor sement</w>
day '</w>
cr y</w>
answ ering</w>
an o</w>
ab use,</w>
ab str
V alle
Luxembour g.</w>
6 )</w>
tri vi
s atelli
reluc tance</w>
re ne
r y.</w>
pro min
pre sum
p o</w>
oun d,</w>
mon ies</w>
is t,</w>
infor med,</w>
hom opho
grass- roots</w>
gen ital</w>
g ur
fraudul ent</w>
execu ted</w>
ess es</w>
broad cast</w>
benef it,</w>
annu ally</w>
Serbi a.</w>
Liikan en</w>
Am bassad
vaccin es</w>
strate gies,</w>
standardis ed</w>
progres sing</w>
pene tr
op po
li ve,</w>
follow s.</w>
fac tual</w>
embr ace</w>
co co
ambiti ous.</w>
abundan tly</w>
WH O</w>
Leban on,</w>
Jarzembowsk i</w>
Irel and's</w>
E ither</w>
Author ity,</w>
vis itors</w>
than k
targe t.</w>
t ne
strengthen ed,</w>
sion :</w>
ship p
scientific ally</w>
recon ci
re z</w>
re open</w>
r s.</w>
preser ved</w>
pe t</w>
occasion ally</w>
leader ship.</w>
ide als</w>
fin alised</w>
elder ly,</w>
doub tless</w>
den ial</w>
decision-mak ing.</w>
cu rious</w>
comm and</w>
clin ical</w>
caus e.</w>
cat ch
care fully,</w>
arti sts</w>
arran ged</w>
appe aring</w>
Sahar a</w>
Pat ent</w>
Liby a,</w>
Ho wit
Fif thly,</w>
Competi tiveness</w>
C air
worry ing.</w>
th rowing</w>
state ments.</w>
re ward</w>
pha se.</w>
person ne
obsole te</w>
mo bi
met res</w>
low ,</w>
lef t-wing</w>
indic ated,</w>
in human</w>
glob ally</w>
friend ship</w>
ex it</w>
ev a</w>
dis car
cry st
coinci dence</w>
cance l</w>
bur gh</w>
bir th
alternati ves.</w>
ali ke.</w>
Syri a,</w>
M agh
Jerusal em
F lem
Buiten we
worl d-
upon .</w>
top ic.</w>
tonigh t.</w>
stand s,</w>
school s.</w>
s k</w>
realis tic,</w>
public 's</w>
polic ing</w>
overri ding</w>
multi- annual</w>
men tion,</w>
lis ting</w>
laun ch
in t
hope ful</w>
flag rant</w>
fish .</w>
fav ouring</w>
employ ing</w>
dam age,</w>
compris es</w>
bit ter</w>
believ ing</w>
b read
attitu de.</w>
appe d</w>
Sán che
S tre
F arm
Curren tly,</w>
Communit y-
Bö ge</w>
B ou
00 0,</w>
ve ?</w>
staff ing</w>
rigor ously</w>
reser vation</w>
pro claimed</w>
politici ans.</w>
op tional</w>
ma de
lu ck
le ast-
le ak
hun ting</w>
ho t
ful l
conf using</w>
capit alism</w>
bus es</w>
app rais
ann ,</w>
absor ption</w>
UNH C
/9 9)</w>
vill ages</w>
ve d:</w>
si es</w>
sci ence,</w>
produc tive.</w>
level led</w>
leg al,</w>
interpre tations</w>
hoo d.</w>
hoo d,</w>
hes itation</w>
g un
even tual</w>
e red</w>
d well</w>
comb at
bo at</w>
be g</w>
ay s,</w>
atu zz
ass on
Terror ism</w>
TR IP
Syri an</w>
S ha
Peter s
Mo der
Mad ri
Di d</w>
Co operation,</w>
200 8
up set</w>
un think
tra ders</w>
spon sor
speech es,</w>
sco pe,</w>
ren dered</w>
remain .</w>
minu tes,</w>
manufacture r</w>
lux ur
hierarch y</w>
gr ass</w>
fundament alist</w>
dossi er.</w>
dialogu es</w>
di ,</w>
comple te.</w>
comit olog
clu bs</w>
civi c</w>
cat alogue</w>
c s</w>
Somal ia</w>
Ro ad</w>
Mo vement</w>
Mar in
Le hne</w>
I A</w>
Fri day,</w>
un used</w>
un t</w>
un duly</w>
tradi tion,</w>
tal ks,</w>
system ic</w>
symp a
skill s,</w>
satisfactor y,</w>
restra int</w>
nowad ays</w>
mo ve.</w>
la .</w>
import s,</w>
gr y</w>
fac e
eman n</w>
do es.</w>
dischar ge,</w>
defin iti
coun ts</w>
champ ion
brief ,</w>
back drop</w>
ash ed</w>
applic ation,</w>
advertis ing.</w>
advan cing</w>
abandon ment</w>
S A</w>
R ou
R oc
MEP s.</w>
K ir
He ad</w>
F atuzz
200 3
wo o
was te
upgra ding</w>
un necessarily</w>
un happy</w>
tu ally,</w>
speci alists</w>
speak er,</w>
restric tions.</w>
quali fication</w>
plac es,</w>
one ’s</w>
modul ation</w>
increas ing.</w>
in spire</w>
foot b
fe et</w>
extremis m</w>
de ten
consider ,</w>
confiden tial</w>
cent red</w>
calend ar</w>
aw ful</w>
ad mir
W a
M is
L ou
H at
Dü hr
Cohn-Bend it</w>
Armen ia</w>
Alban ians</w>
2 3,</w>
tri partite</w>
terroris ts.</w>
sl o</w>
rel y.</w>
re cep
pertin ent</w>
pass ports</w>
pass es</w>
open ness,</w>
o tic</w>
nor ms</w>
no ble</w>
j ö
issu es:</w>
inju ries</w>
hol dings</w>
flex ic
fisher men.</w>
concep t,</w>
compromis ing</w>
change over</w>
c use</w>
anti- Semiti
agenc y.</w>
adver sely</w>
O ce
Mal ta,</w>
Bang emann</w>
5 2</w>
200 1/
(E EC)</w>
sk ill</w>
see ds</w>
re pro
pen alised</w>
mis taken</w>
mer ger</w>
materi al.</w>
maintain ed,</w>
lim its,</w>
intr in
glad ly</w>
dict ate</w>
deplor able</w>
critic ally</w>
commun iti
categor ically</w>
Tric he
S ur
O slo</w>
In quiry</w>
F lyn
F av
Equal ly,</w>
E din
197 0
self- regulation</w>
plan ning.</w>
om bud
mur ders</w>
liber alised</w>
illustr ation</w>
h us</w>
fix ing</w>
er s?</w>
entire ty.</w>
dri f
cour ts,</w>
cont ing
b att
at us</w>
acknowledge ment</w>
ac e
UCLA F</w>
Ob ama</w>
Fr asson
7 /
12 .</w>
win ning</w>
volun tarily</w>
tur bul
tic ally,</w>
te red.</w>
sustain ability,</w>
sp here.</w>
retur ns</w>
pro -European</w>
prefer ably</w>
p ar</w>
out come,</w>
mat h</w>
magnific ent</w>
lit tle.</w>
in different</w>
ill nesses</w>
he ated</w>
gol den</w>
decou pling</w>
consequ ence,</w>
chan ce.</w>
bab y</w>
attitu de,</w>
Union -
S ö
S itu
De part
Ann an</w>
y ard
un limited</w>
spen ding,</w>
relevan t.</w>
recogn ised.</w>
pupil s</w>
pun ished.</w>
our e</w>
ou gh</w>
motiv ation</w>
mill enni
marri age</w>
mag nit
im possible,</w>
histor ically</w>
ge :</w>
f ast
exce eds</w>
ex ports,</w>
demonstr ators</w>
death ,</w>
champ ion</w>
case- by-
burden .</w>
after math</w>
a .m
Women ’s</w>
V ,</w>
L oc
E EA
Contr ary</w>
Char ter,</w>
Alex ander</w>
Ac t,</w>
who ever</w>
wast ing</w>
tra m
star t-
peaceful ly</w>
oper ator</w>
j er
in sight</w>
i ra,</w>
i er</w>
howe ver
expec ted.</w>
employe r</w>
disman tle</w>
direc tor</w>
detec t</w>
destruc tion,</w>
desira ble.</w>
democr atis
degree ,</w>
day :</w>
d al</w>
cl uster</w>
cataly st</w>
calcul ating</w>
build ings.</w>
be sides</w>
appropri ation</w>
ann ak
ad ju
ach es</w>
Wh y,</w>
Secretari at</w>
Rec ently,</w>
Nic hol
K ey
Gra d
Fir stly</w>
Austral ia</w>
Al pine</w>
y e</w>
win ners</w>
under way</w>
travel led</w>
tra p</w>
ste ms</w>
st able,</w>
spe ll</w>
som e,</w>
retur n,</w>
re uni
quic ker</w>
prohi biting</w>
no ted,</w>
moder ni
i d,</w>
human s</w>
flexi ble.</w>
exer ting</w>
econom ics</w>
do or
dis proportion
council s</w>
consi gn
cha in,</w>
appro ves</w>
af firm</w>
ad s</w>
Ve terinary</w>
Res pon
McCree vy</w>
Cap ital</w>
B at
( 5)</w>
vic e-
sol ved.</w>
shif ting</w>
scrutin y.</w>
s "</w>
protocol s</w>
propor tional</w>
per cent</w>
par am
o ve
now ?</w>
margin al</w>
man n
i a
fi x</w>
facilit ated</w>
ess ed</w>
en ce
dow ed</w>
deterior ating</w>
defen ce
da k
consul tative</w>
c ity.</w>
c as</w>
attrac ted</w>
are d,</w>
advan ce.</w>
T en</w>
Sloven ia,</w>
Plan ,</w>
Moroc co.</w>
K re
B il
ASE M</w>
10 .
uni form
subsidi ary</w>
stead ily</w>
ste in</w>
set tling</w>
ris es</w>
recipi ents</w>
inv it
in coming</w>
f er.</w>
existen ce,</w>
eco systems</w>
dis mis
concep tion</w>
compe lled</w>
close ly,</w>
clas h</w>
challen ged</w>
cat ching</w>
case-by- case</w>
bas e,</w>
ar d.</w>
ab road,</w>
Th ys
Oostlan der</w>
Napo lit
NGO s.</w>
A 4-0
un expected</w>
tuberculos is</w>
tre a
sign atu
resour ces
repatri ation</w>
realis ing</w>
poo l</w>
po t
pers on.</w>
oper ate.</w>
obli ges</w>
lia ison</w>
interpre ters</w>
ho ,</w>
h n,</w>
h er,</w>
gener alised</w>
ful l-
disrup tion</w>
difficul ty.</w>
dem ago
dang er.</w>
counterfe it
classi c</w>
an z
accoun ts,</w>
V O
Tech nical</w>
TE R
Macedon ia.</w>
Lam ass
LIF E</w>
E mp
Dru gs</w>
Cul tural</w>
A tom
5 1</w>
understand ing,</w>
u ous</w>
sustain able.</w>
sor ted</w>
so ya</w>
share holders</w>
sh all,</w>
s ’.</w>
pre am
por tion</w>
monito red.</w>
hi ding</w>
exce eding</w>
embr yon
cultu res,</w>
cred it,</w>
countri es’</w>
asha med</w>
Sch en
K or
Berluscon i</w>
B la
Author ity.</w>
(G A)</w>
(E G
y s.</w>
win e-
vis a-
v ine</w>
undeni able</w>
si e
rough ly</w>
no tor
neutr ality</w>
ma ize</w>
law -
las ted</w>
intensi fied</w>
f y,</w>
elec tion,</w>
e ast
dictator ships</w>
bus y</w>
back bone</w>
ambigu ous</w>
absor b</w>
Possel t</w>
Milose vic
M ob
GN P</w>
Euro stat
Bal i</w>
Atom ic</w>
vessel s.</w>
trans porting</w>
ter 's</w>
ta ilo
stand s.</w>
spir al</w>
reg ener
p rais
ou ts</w>
other 's</w>
obser ved.</w>
mi d</w>
manif est
k ic
in sufficient.</w>
expec tancy</w>
eviden ce,</w>
doub tful</w>
dis pen
conver t</w>
co ach</w>
cl on
awai ted</w>
appl y,</w>
ali en
al ities,</w>
ac tive,</w>
V il
Thir d,</w>
Sud an,</w>
Palestin e.</w>
Pakist ani</w>
K in
Contro l.</w>
B agh
- made</w>
view point</w>
tive :</w>
person ality</w>
p y
out comes</w>
origin s</w>
ol ing</w>
len ec
inflic ted</w>
g er,</w>
formul ating</w>
explo sive</w>
excep tions,</w>
e lo
dri ft</w>
confis c
choic es.</w>
bun d
block ade</w>
be ?</w>
appro val,</w>
O .</w>
Lam y</w>
Kyrgy z
Hab s
Group 's</w>
Ferrero-Wald ner</w>
Croati a's</w>
Colombi an</w>
z 's</w>
ver sions</w>
tru th
te ment</w>
tailo red</w>
sup pression</w>
stan d.</w>
show n,</w>
sco pe.</w>
retur n.</w>
respec ts.</w>
re for
qualific ations,</w>
pris on.</w>
one '</w>
no table</w>
m ber
le is
jö sted
issu e:</w>
ham per</w>
h o</w>
expir y</w>
evalu ation.</w>
dete ction</w>
degre es</w>
dedic ation</w>
cruci ally</w>
conten tious</w>
compu ter
bet we
advanta geous</w>
Schro ed
S jösted
Oomen-Ruij ten</w>
Moz ambi
Har bour</w>
Di alogue</w>
Cor rec
undertak ings,</w>
tri alogu
ton gu
tigh ter</w>
stor y.</w>
significan t,</w>
secon ds</w>
revi ve</w>
prison ers.</w>
mo st,</w>
lead ers.</w>
le an</w>
lands cape</w>
is o
in stead
in qu
es !</w>
declar ing</w>
d res
custom ary</w>
countr y-
consequ ent</w>
ch es
an ds</w>
abol ished.</w>
Tra ining</w>
Presiden ts.</w>
G is
Burma ,</w>
2000 /
. "</w>
un question
situ ated</w>
rub b
rapporteur '</w>
r ö
pleas e,</w>
on ly.</w>
om issi
non- discriminatory</w>
journe ys</w>
interpre ting</w>
in her
embryon ic</w>
draf t,</w>
continu al</w>
cancer .</w>
ass es
applic ations.</w>
an ces.</w>
U ne
Sch rö
Rom a,</w>
Re hn</w>
Possel t,</w>
Man n</w>
H er</w>
EMU .</w>
Du pu
C lau
Banglad esh</w>
19 4
ã o</w>
zi dak
y ourselves</w>
undertak ings.</w>
under gone</w>
suppli es.</w>
sup pose</w>
stic king</w>
ric her</w>
r is</w>
qual ities</w>
out dated</w>
op tion,</w>
maxim ise</w>
g ulf</w>
ev asion</w>
dispu ted</w>
cy nical</w>
cove red.</w>
bott lenec
black mail</w>
adminis tered</w>
Wor l
Pu tin
Pro pos
P ay
NG O</w>
F IF
Del l'
De puty</w>
total itarian
ti vi
rel ess</w>
refer red.</w>
rap pro
prof it.</w>
phenomen on,</w>
none theless,</w>
mo de</w>
fi re.</w>
duc ing</w>
devast ated</w>
detec ted</w>
deleg ation.</w>
cour t,</w>
cle ared</w>
char ges.</w>
cen tre
c abo
accoun ted</w>
Vitor ino</w>
Roth ley</w>
Recommend ation</w>
Mandel son</w>
IC T</w>
Hat zidak
Ethiop ia</w>
Be ing</w>
Ara fat</w>
- day</w>
- and-
' I</w>
y al</w>
ta ste</w>
ste er</w>
st ations,</w>
qualific ations.</w>
pre matu
mo st.</w>
legitima tely</w>
labour- intensive</w>
l es'</w>
k atell
inten tions.</w>
initi ating</w>
electric ity,</w>
el .</w>
ef in</w>
distor ting</w>
cour tes
comm on
bin ding.</w>
an o
Ter ritor
T ru
H agu
Fu ture</w>
Fe ira</w>
D G
B ir
An dre
w a</w>
vo id</w>
universi ties,</w>
stud y.</w>
stipul ate</w>
s at</w>
ol d.</w>
minor ity,</w>
land fill</w>
isol ate</w>
ir rit
infl ation,</w>
in-Offic e</w>
horri fic</w>
for ge</w>
exper ts.</w>
doc tor</w>
di j
depart ment</w>
cro ps.</w>
conven tion.</w>
conclu ded.</w>
cle ,</w>
chron ic</w>
ce r</w>
cancer ,</w>
boun d
bench mark</w>
assum es</w>
Venezuel a</w>
Tra katell
M yan
Gen o
Fron tex
D í
D raft</w>
C ent
Bur ton</w>
1 5.</w>
! '</w>
y '.</w>
uncertain ties</w>
umb rel
sp here,</w>
sav ings.</w>
resi du
require ment.</w>
problem :</w>
outri ght</w>
har sh
finan ce,</w>
evalu ations</w>
dicta ted</w>
cosme tic</w>
correc tive</w>
commission ed</w>
catastro ph
ati ves.</w>
at y
air ports,</w>
air lines,</w>
accompl ished</w>
T ony</w>
P é
Izquier do</w>
Ital i
Govern ing</w>
GMO s.</w>
Decis ions</w>
world '</w>
work ings</w>
wil l
welcom ed,</w>
ver sit
un sustainable</w>
u d</w>
tra um
ta il
su red</w>
stor ies</w>
s pl
s n
ro c
repeti tion</w>
quo te:</w>
proxim ity</w>
polic y:</w>
play ers.</w>
n án
infrastructu res,</w>
increas ing,</w>
in dispu
free- trade</w>
form erly</w>
f .</w>
docu mented</w>
des cen
dele ted</w>
defic it,</w>
danger ous,</w>
cy clic
cur ricul
conven tions.</w>
broadca st
bio -
ap pointing</w>
ap par
acciden t,</w>
a sive</w>
S ain
P la
Me chan
Made ira</w>
Lor d</w>
14 9
1 30</w>
tion s;</w>
super fici
solven cy</w>
scrap ping</w>
pre mise</w>
p act,</w>
l am
j a</w>
im por
ic ally.</w>
ful ly-
facilit ates</w>
destro yed.</w>
cru de</w>
consum ed</w>
complic ated.</w>
comm only</w>
celebra ted</w>
Naz i</w>
K i
Guarante e</w>
Director -
top -
spir it.</w>
provi der</w>
nan o
massac re</w>
lea ve,</w>
guarante ed,</w>
fantas tic</w>
f are</w>
experi ment</w>
doub t.</w>
de af</w>
counter ing</w>
co- decision</w>
clar ity,</w>
chur ches</w>
barri ers,</w>
anti- dumping</w>
an onym
advanta ge.</w>
admitte dly</w>
Wor ks</w>
Tam pe
IG C.</w>
G all
Ad visory</w>
w aged</w>
v ise</w>
u ,</w>
traffic kers</w>
tenden cies</w>
subordin ate</w>
sh ir
se al</w>
renewab les</w>
remain s,</w>
plac es.</w>
nutri tional</w>
nation als.</w>
men 's</w>
lor ry</w>
inter connection</w>
inten sively</w>
hor ror
h ung
gol ese</w>
experi enc
ev ing</w>
develop s</w>
da c</w>
ce real</w>
bro ke</w>
blu efin</w>
asp ire</w>
an omal
addres sed,</w>
Re covery</w>
P rec
F P
Euro dac</w>
Barro t</w>
Anim al</w>
A N
well- balanced</w>
vit al,</w>
un regulated</w>
u pris
trig ger</w>
temper ature</w>
techn ical,</w>
ta ine</w>
star ch</w>
st ab
speech es.</w>
s is,</w>
recover y,</w>
rec ord
ra p</w>
pati ents.</w>
op tions.</w>
mon u
less ness</w>
justifi ably</w>
ju st,</w>
gener ation.</w>
exten ded.</w>
explo sion</w>
er s;</w>
d oping</w>
contradic ts</w>
c y-
asbes tos</w>
Sel la
Qu aes
Parliament ?</w>
Natur ally</w>
M organ
G P
Con go,</w>
Cair o</w>
Barro so
B e</w>
(CNS) ).</w>
win ter</w>
unavoid able</w>
she et</w>
recit als</w>
prerequis ites</w>
precis e,</w>
politic ally,</w>
missi le</w>
leader ship,</w>
instru mental</w>
inadequ ate,</w>
illu sion</w>
hear t.</w>
gri p</w>
forgot ten.</w>
foreign ers</w>
es ',</w>
en large</w>
dam ag
cra ft</w>
conven tion,</w>
calcul ations</w>
autum n.</w>
alloc ations</w>
accountabil ity.</w>
R S</w>
Patten ,</w>
Minute s)</w>
Helm s-
4 50</w>
1 1.</w>
(COD) ).</w>
worldwi de,</w>
wor ded</w>
un wanted</w>
un just</w>
ty ;</w>
selec t</w>
seas onal</w>
religi ons</w>
ration ale</w>
los ses.</w>
loc ked</w>
lead er,</w>
irrever sible</w>
gra vity</w>
gi ous</w>
fle dged</w>
every where,</w>
easi er.</w>
e ar</w>
coura ge
compens ation,</w>
cent res.</w>
bar gaining</w>
aver age.</w>
an ne
aim s,</w>
advic e,</w>
Z ap
Pie bal
M ,</w>
Imple mentation</w>
Gaz a,</w>
EC .</w>
Docu ments</w>
Day ton</w>
C s</w>
win e,</w>
we b</w>
territor ies,</w>
stop .</w>
standar d.</w>
slog an</w>
situ ation?</w>
region 's</w>
proce eds</w>
premis es</w>
play ers,</w>
le n</w>
lan ding</w>
it y's</w>
in fer
in efficient</w>
in discriminate</w>
ha bits</w>
favoura bly</w>
ex porters</w>
elabor ate</w>
detail s.</w>
deep est</w>
d augh
barome ter</w>
asser tion</w>
Ma h
Lan ka</w>
Cres po
B ay</w>
wish es.</w>
wh y.</w>
uni qu
te st.</w>
t ing
satisfactor ily</w>
remun er
perspec tives,</w>
observ ations.</w>
improve ments,</w>
geo graphic</w>
forest s,</w>
extr action</w>
explo i
e ’s</w>
disgr ace</w>
correc ted</w>
colon i
an tan
a ur
Tom lin
Tibe t.</w>
Par ties</w>
Mac a
Ma king</w>
Geor ge</w>
Agen cy's</w>
- year-old</w>
water way</w>
warm est</w>
wa ves</w>
tri ang
succe ed,</w>
seri ous
predic ted</w>
percei ve</w>
over loo
noti ce
no .</w>
mul ticul
long er,</w>
k '</w>
inv alu
in au
for ty</w>
eradic ating</w>
dictator ship.</w>
comple ted,</w>
an g</w>
al ?</w>
abo ve,</w>
V ig
Sac con
Moldov a,</w>
House ’s</w>
GAT T</w>
F our</w>
Char ter.</w>
3 4
201 2,</w>
( which</w>
' We</w>
work place.</w>
wate red</w>
sla very</w>
shop ping</w>
sacrific es</w>
recogn ised,</w>
re l</w>
popul ations.</w>
objectiv es:</w>
lo ved</w>
interrup ted</w>
in comprehen
i fication</w>
haven s</w>
fle eing</w>
eviden ce.</w>
detail s,</w>
concep t.</w>
competen ces,</w>
clean ing</w>
atis m</w>
am ed</w>
T anno
Stal in
Pa ul
L O
German s</w>
F ive</w>
Dru g</w>
Barni er,</w>
/01 ):</w>
y ing.</w>
x .</w>
trans cen
tr ace</w>
today :</w>
sitt ings</w>
sa ,</w>
provo ked</w>
j i
influen za</w>
im porters</w>
ha bit</w>
fil ms</w>
fel low-
ef fic
disab ilities.</w>
d é
chur ch</w>
as ked,</w>
ambi tions.</w>
alcoho lic</w>
Ob serv
Go als.</w>
Cres po</w>
BSE .</w>
- We
z y</w>
ur t
unemploye d.</w>
un rest</w>
trans posing</w>
tic ket</w>
speci fies</w>
small est</w>
sig ned.</w>
shortcom ings,</w>
seg reg
s al</w>
restric tions,</w>
reloc ations</w>
regret tably</w>
re al,</w>
purpo se
predomin antly</w>
pr ints</w>
popul ist</w>
paten ting</w>
negoti ation.</w>
ment )</w>
lack ing.</w>
influ ence,</w>
in ti
in jec
ho ods</w>
han ding</w>
fe ared</w>
fam ine</w>
exploit ation.</w>
differen tly.</w>
de ed
construc ting</w>
connec t</w>
compani es'</w>
col l
cigaret te</w>
aud iting</w>
ar agu
any way.</w>
am s</w>
P ast
Nic aragu
M aij
Liby an</w>
Ef fec
Dub lin
Bon ino</w>
year ly</w>
weal th,</w>
un favourable</w>
suspen ding</w>
sion al</w>
se iz
right s;</w>
reta il
provision .</w>
par ts,</w>
non- European</w>
nom ination</w>
my ster
mitte d,</w>
margin alised</w>
man kind</w>
long side</w>
log ical,</w>
k en
ite m.</w>
exten sively</w>
ess ly</w>
ener gy
descri p
declar ation,</w>
de posi
cra f
counter act</w>
casu al
capit als</w>
cal m
amoun t.</w>
ach ing</w>
W est
Palestini ans,</w>
Maij -We
IC E
I P</w>
Ho lo
Basi cally,</w>
Ambassad or</w>
A longside</w>
5 8</w>
- on</w>
w ages,</w>
vol can
ve he
unanim ously.</w>
tradi tions,</w>
speci fying</w>
semin ar</w>
right ful</w>
recor ding</w>
portfoli o</w>
pe des
pati ents,</w>
obvi ous,</w>
new s.</w>
mat ched</w>
long er-
inven tions</w>
force fully</w>
ex cess
elo qu
du ty.</w>
drin k</w>
dispu te.</w>
di abe
deca de,</w>
corpor ations</w>
convin c
contr ary.</w>
consum ing</w>
behavi our,</w>
back ward</w>
al er
addres s.</w>
Une mploy
Or al</w>
Herzegovin a,</w>
D .</w>
Christi an
won der,</w>
wai ted</w>
usel ess</w>
ti e</w>
thing s:</w>
step s,</w>
region al,</w>
prohi bits</w>
mag ne
lo ts</w>
i re.</w>
i re,</w>
hinde red</w>
guide line</w>
gener ation,</w>
g st</w>
complex .</w>
clas hes</w>
b al</w>
arm y,</w>
apor e</w>
anne xed</w>
acqu iring</w>
achie ve,</w>
St atis
Sing apore</w>
Har bour
Gis card</w>
For d</w>
Cat al
Amon gst</w>
with out,</w>
strateg ically</w>
prev ailed</w>
paren t</w>
over come.</w>
out put</w>
off er.</w>
mi les</w>
mer cy</w>
materi al,</w>
mar k.</w>
ir s</w>
invest or</w>
il s.</w>
him self,</w>
hel pl
head way</w>
ga u</w>
fir ms,</w>
dump ing,</w>
dis closure</w>
conver ted</w>
[...]
